<pad>	0
<unk>	0
<s>	0
</s>	0
<0x00>	0
<0x01>	0
<0x02>	0
<0x03>	0
<0x04>	0
<0x05>	0
<0x06>	0
<0x07>	0
<0x08>	0
<0x09>	0
<0x0A>	0
<0x0B>	0
<0x0C>	0
<0x0D>	0
<0x0E>	0
<0x0F>	0
<0x10>	0
<0x11>	0
<0x12>	0
<0x13>	0
<0x14>	0
<0x15>	0
<0x16>	0
<0x17>	0
<0x18>	0
<0x19>	0
<0x1A>	0
<0x1B>	0
<0x1C>	0
<0x1D>	0
<0x1E>	0
<0x1F>	0
<0x20>	0
<0x21>	0
<0x22>	0
<0x23>	0
<0x24>	0
<0x25>	0
<0x26>	0
<0x27>	0
<0x28>	0
<0x29>	0
<0x2A>	0
<0x2B>	0
<0x2C>	0
<0x2D>	0
<0x2E>	0
<0x2F>	0
<0x30>	0
<0x31>	0
<0x32>	0
<0x33>	0
<0x34>	0
<0x35>	0
<0x36>	0
<0x37>	0
<0x38>	0
<0x39>	0
<0x3A>	0
<0x3B>	0
<0x3C>	0
<0x3D>	0
<0x3E>	0
<0x3F>	0
<0x40>	0
<0x41>	0
<0x42>	0
<0x43>	0
<0x44>	0
<0x45>	0
<0x46>	0
<0x47>	0
<0x48>	0
<0x49>	0
<0x4A>	0
<0x4B>	0
<0x4C>	0
<0x4D>	0
<0x4E>	0
<0x4F>	0
<0x50>	0
<0x51>	0
<0x52>	0
<0x53>	0
<0x54>	0
<0x55>	0
<0x56>	0
<0x57>	0
<0x58>	0
<0x59>	0
<0x5A>	0
<0x5B>	0
<0x5C>	0
<0x5D>	0
<0x5E>	0
<0x5F>	0
<0x60>	0
<0x61>	0
<0x62>	0
<0x63>	0
<0x64>	0
<0x65>	0
<0x66>	0
<0x67>	0
<0x68>	0
<0x69>	0
<0x6A>	0
<0x6B>	0
<0x6C>	0
<0x6D>	0
<0x6E>	0
<0x6F>	0
<0x70>	0
<0x71>	0
<0x72>	0
<0x73>	0
<0x74>	0
<0x75>	0
<0x76>	0
<0x77>	0
<0x78>	0
<0x79>	0
<0x7A>	0
<0x7B>	0
<0x7C>	0
<0x7D>	0
<0x7E>	0
<0x7F>	0
<0x80>	0
<0x81>	0
<0x82>	0
<0x83>	0
<0x84>	0
<0x85>	0
<0x86>	0
<0x87>	0
<0x88>	0
<0x89>	0
<0x8A>	0
<0x8B>	0
<0x8C>	0
<0x8D>	0
<0x8E>	0
<0x8F>	0
<0x90>	0
<0x91>	0
<0x92>	0
<0x93>	0
<0x94>	0
<0x95>	0
<0x96>	0
<0x97>	0
<0x98>	0
<0x99>	0
<0x9A>	0
<0x9B>	0
<0x9C>	0
<0x9D>	0
<0x9E>	0
<0x9F>	0
<0xA0>	0
<0xA1>	0
<0xA2>	0
<0xA3>	0
<0xA4>	0
<0xA5>	0
<0xA6>	0
<0xA7>	0
<0xA8>	0
<0xA9>	0
<0xAA>	0
<0xAB>	0
<0xAC>	0
<0xAD>	0
<0xAE>	0
<0xAF>	0
<0xB0>	0
<0xB1>	0
<0xB2>	0
<0xB3>	0
<0xB4>	0
<0xB5>	0
<0xB6>	0
<0xB7>	0
<0xB8>	0
<0xB9>	0
<0xBA>	0
<0xBB>	0
<0xBC>	0
<0xBD>	0
<0xBE>	0
<0xBF>	0
<0xC0>	0
<0xC1>	0
<0xC2>	0
<0xC3>	0
<0xC4>	0
<0xC5>	0
<0xC6>	0
<0xC7>	0
<0xC8>	0
<0xC9>	0
<0xCA>	0
<0xCB>	0
<0xCC>	0
<0xCD>	0
<0xCE>	0
<0xCF>	0
<0xD0>	0
<0xD1>	0
<0xD2>	0
<0xD3>	0
<0xD4>	0
<0xD5>	0
<0xD6>	0
<0xD7>	0
<0xD8>	0
<0xD9>	0
<0xDA>	0
<0xDB>	0
<0xDC>	0
<0xDD>	0
<0xDE>	0
<0xDF>	0
<0xE0>	0
<0xE1>	0
<0xE2>	0
<0xE3>	0
<0xE4>	0
<0xE5>	0
<0xE6>	0
<0xE7>	0
<0xE8>	0
<0xE9>	0
<0xEA>	0
<0xEB>	0
<0xEC>	0
<0xED>	0
<0xEE>	0
<0xEF>	0
<0xF0>	0
<0xF1>	0
<0xF2>	0
<0xF3>	0
<0xF4>	0
<0xF5>	0
<0xF6>	0
<0xF7>	0
<0xF8>	0
<0xF9>	0
<0xFA>	0
<0xFB>	0
<0xFC>	0
<0xFD>	0
<0xFE>	0
<0xFF>	0
▁t	-0
he	-1
▁a	-2
in	-3
▁the	-4
er	-5
on	-6
▁,	-7
re	-8
▁s	-9
ed	-10
▁w	-11
▁o	-12
nd	-13
at	-14
▁.	-15
or	-16
en	-17
▁c	-18
it	-19
▁f	-20
is	-21
es	-22
ar	-23
▁b	-24
▁of	-25
an	-26
▁in	-27
al	-28
ing	-29
▁p	-30
as	-31
▁and	-32
▁to	-33
ic	-34
ro	-35
▁m	-36
▁d	-37
▁h	-38
ion	-39
le	-40
ou	-41
▁T	-42
▁re	-43
▁=	-44
▁S	-45
il	-46
▁A	-47
ent	-48
▁"	-49
▁th	-50
st	-51
el	-52
▁C	-53
▁l	-54
▁@	-55
om	-56
▁e	-57
am	-58
▁n	-59
ad	-60
ac	-61
▁was	-62
▁M	-63
▁B	-64
ec	-65
▁on	-66
▁The	-67
ly	-68
ur	-69
▁'	-70
et	-71
id	-72
ol	-73
▁g	-74
im	-75
▁I	-76
-@	-77
▁@-@	-78
▁for	-79
ir	-80
ig	-81
iv	-82
ot	-83
ter	-84
▁H	-85
ut	-86
▁as	-87
us	-88
ow	-89
ith	-90
ay	-91
▁P	-92
▁st	-93
▁he	-94
ver	-95
ation	-96
▁with	-97
▁be	-98
▁R	-99
▁that	-100
▁D	-101
ce	-102
un	-103
em	-104
▁W	-105
▁wh	-106
▁F	-107
ch	-108
▁by	-109
th	-110
▁al	-111
▁)	-112
▁(	-113
▁L	-114
ul	-115
▁G	-116
▁is	-117
▁con	-118
ers	-119
▁at	-120
ct	-121
▁N	-122
ra	-123
os	-124
▁an	-125
▁it	-126
her	-127
rom	-128
and	-129
um	-130
▁J	-131
est	-132
▁his	-133
▁E	-134
ag	-135
av	-136
ain	-137
ri	-138
od	-139
▁from	-140
▁O	-141
ist	-142
▁com	-143
▁v	-144
▁pro	-145
op	-146
ill	-147
ore	-148
if	-149
ld	-150
up	-151
▁r	-152
ew	-153
ere	-154
res	-155
igh	-156
▁In	-157
ies	-158
▁de	-159
ber	-160
art	-161
ard	-162
ort	-163
▁se	-164
ich	-165
▁were	-166
ate	-167
all	-168
ak	-169
ant	-170
oc	-171
ud	-172
ap	-173
▁ex	-174
qu	-175
ong	-176
ab	-177
▁ch	-178
▁or	-179
▁K	-180
gh	-181
ear	-182
ess	-183
ated	-184
▁pl	-185
▁sh	-186
ity	-187
ip	-188
ive	-189
ame	-190
▁U	-191
▁had	-192
ect	-193
ack	-194
▁St	-195
▁su	-196
ast	-197
se	-198
red	-199
▁k	-200
ge	-201
▁which	-202
our	-203
ment	-204
▁le	-205
und	-206
▁are	-207
ov	-208
ian	-209
ial	-210
▁not	-211
ell	-212
▁sp	-213
ost	-214
▁y	-215
ight	-216
ia	-217
ord	-218
ust	-219
ary	-220
ine	-221
ther	-222
pt	-223
rit	-224
oun	-225
pp	-226
ical	-227
▁Ch	-228
ave	-229
▁un	-230
cc	-231
▁inc	-232
fter	-233
ould	-234
▁V	-235
▁but	-236
irst	-237
ish	-238
ous	-239
te	-240
ff	-241
ions	-242
so	-243
▁comp	-244
ide	-245
▁ro	-246
ure	-247
▁whe	-248
ub	-249
▁ar	-250
▁cont	-251
ie	-252
▁;	-253
og	-254
ign	-255
▁first	-256
▁cl	-257
wo	-258
▁her	-259
ry	-260
ue	-261
▁its	-262
ass	-263
▁their	-264
orm	-265
▁–	-266
ok	-267
ork	-268
▁int	-269
▁res	-270
▁He	-271
▁:	-272
ater	-273
▁also	-274
▁ab	-275
ond	-276
▁ad	-277
ome	-278
out	-279
ran	-280
mer	-281
ire	-282
hed	-283
ru	-284
▁us	-285
age	-286
du	-287
ime	-288
low	-289
▁per	-290
per	-291
▁who	-292
▁Th	-293
▁one	-294
▁have	-295
▁sc	-296
pl	-297
ally	-298
own	-299
ile	-300
▁rec	-301
ted	-302
.@	-303
▁@.@	-304
▁two	-305
ition	-306
ugh	-307
iz	-308
ree	-309
ence	-310
ts	-311
uring	-312
port	-313
▁been	-314
▁part	-315
▁bec	-316
ice	-317
▁has	-318
▁Al	-319
▁ag	-320
▁app	-321
ough	-322
,@	-323
▁@,@	-324
▁j	-325
▁en	-326
▁dis	-327
lud	-328
ke	-329
▁over	-330
▁ser	-331
▁this	-332
ory	-333
ely	-334
▁year	-335
ations	-336
ember	-337
ren	-338
ction	-339
ound	-340
ach	-341
▁off	-342
▁after	-343
ric	-344
▁up	-345
land	-346
▁play	-347
▁des	-348
ace	-349
▁It	-350
ark	-351
over	-352
ance	-353
▁out	-354
▁they	-355
▁man	-356
ade	-357
▁te	-358
act	-359
▁other	-360
ib	-361
man	-362
ult	-363
▁im	-364
▁Y	-365
ph	-366
ress	-367
▁includ	-368
ced	-369
ens	-370
urn	-371
wn	-372
▁would	-373
ind	-374
▁time	-375
one	-376
▁pre	-377
▁into	-378
vel	-379
▁On	-380
▁Un	-381
ward	-382
we	-383
▁we	-384
▁him	-385
ite	-386
oin	-387
ates	-388
▁she	-389
les	-390
▁ev	-391
ilm	-392
▁att	-393
ased	-394
▁ne	-395
ited	-396
able	-397
end	-398
ied	-399
ase	-400
amp	-401
▁comm	-402
ors	-403
▁inter	-404
are	-405
rough	-406
oy	-407
ons	-408
ount	-409
ep	-410
form	-411
▁all	-412
ose	-413
ood	-414
ang	-415
▁more	-416
ces	-417
▁work	-418
ail	-419
old	-420
aw	-421
ered	-422
ings	-423
ve	-424
ild	-425
▁An	-426
▁new	-427
▁sec	-428
▁bet	-429
▁when	-430
inal	-431
▁fe	-432
▁film	-433
ick	-434
vi	-435
ents	-436
▁Se	-437
way	-438
att	-439
ft	-440
iss	-441
aus	-442
fer	-443
gan	-444
▁Mar	-445
reat	-446
rib	-447
▁cons	-448
▁Ar	-449
round	-450
ake	-451
▁rem	-452
ved	-453
▁tr	-454
▁dec	-455
ason	-456
ans	-457
▁during	-458
▁und	-459
orth	-460
ubl	-461
hip	-462
▁again	-463
▁As	-464
▁most	-465
▁game	-466
oth	-467
▁them	-468
▁only	-469
▁pr	-470
ath	-471
ween	-472
ix	-473
▁ear	-474
ollow	-475
▁than	-476
ob	-477
rop	-478
▁sup	-479
ational	-480
fore	-481
▁New	-482
▁about	-483
▁produ	-484
ug	-485
▁cent	-486
tern	-487
▁kn	-488
▁ret	-489
ey	-490
▁char	-491
▁song	-492
▁can	-493
outh	-494
▁between	-495
▁later	-496
orn	-497
▁rele	-498
▁under	-499
ict	-500
▁three	-501
hn	-502
ton	-503
▁col	-504
ron	-505
▁act	-506
als	-507
▁qu	-508
▁through	-509
▁En	-510
orld	-511
ook	-512
▁num	-513
▁so	-514
▁me	-515
▁acc	-516
▁rel	-517
▁while	-518
▁ra	-519
▁end	-520
meric	-521
▁Le	-522
lect	-523
▁Americ	-524
▁fl	-525
ters	-526
ock	-527
▁pos	-528
ral	-529
▁sub	-530
ever	-531
ular	-532
▁ass	-533
ating	-534
▁where	-535
▁ver	-536
▁day	-537
ck	-538
▁reg	-539
▁second	-540
ener	-541
aid	-542
▁bu	-543
▁Com	-544
▁made	-545
ames	-546
ision	-547
ived	-548
▁Re	-549
▁pe	-550
hes	-551
▁record	-552
son	-553
▁def	-554
bum	-555
▁four	-556
▁gro	-557
▁follow	-558
▁season	-559
▁ep	-560
▁form	-561
▁some	-562
▁such	-563
▁am	-564
ool	-565
ished	-566
▁mov	-567
▁before	-568
▁tra	-569
▁mus	-570
▁Sp	-571
▁there	-572
▁writ	-573
hen	-574
ics	-575
▁Jo	-576
io	-577
▁spec	-578
iel	-579
ike	-580
▁sy	-581
▁years	-582
▁team	-583
▁At	-584
ode	-585
ual	-586
▁This	-587
ident	-588
▁/	-589
▁lar	-590
▁album	-591
▁Sh	-592
▁ind	-593
ros	-594
ily	-595
owever	-596
▁ent	-597
ning	-598
▁used	-599
▁call	-600
ank	-601
▁sur	-602
ific	-603
▁ac	-604
ury	-605
▁high	-606
▁publ	-607
▁being	-608
▁epis	-609
ained	-610
▁then	-611
led	-612
ten	-613
velop	-614
aj	-615
▁do	-616
▁loc	-617
▁exp	-618
ife	-619
ris	-620
▁against	-621
▁inv	-622
▁bl	-623
▁pres	-624
▁show	-625
other	-626
▁number	-627
▁After	-628
▁charac	-629
ious	-630
▁sever	-631
▁add	-632
▁co	-633
▁set	-634
ek	-635
ince	-636
ject	-637
ars	-638
▁became	-639
▁rece	-640
▁Brit	-641
ause	-642
▁lead	-643
▁perform	-644
▁no	-645
▁including	-646
▁sing	-647
ather	-648
ins	-649
▁—	-650
ines	-651
▁found	-652
▁United	-653
rans	-654
air	-655
▁well	-656
ale	-657
▁mon	-658
▁rep	-659
▁Sc	-660
▁pol	-661
▁back	-662
▁both	-663
ier	-664
▁cap	-665
▁series	-666
ober	-667
ram	-668
▁Con	-669
ik	-670
ower	-671
▁ship	-672
ement	-673
its	-674
ert	-675
ired	-676
ures	-677
ley	-678
▁Wh	-679
▁She	-680
ivers	-681
▁main	-682
pen	-683
▁min	-684
iet	-685
der	-686
overn	-687
▁did	-688
ven	-689
▁go	-690
▁cre	-691
elf	-692
olog	-693
▁imp	-694
▁develop	-695
▁met	-696
az	-697
ities	-698
▁Eng	-699
▁long	-700
iver	-701
any	-702
ll	-703
ised	-704
erm	-705
ting	-706
uch	-707
ared	-708
ann	-709
ane	-710
ird	-711
▁em	-712
▁John	-713
▁mill	-714
ful	-715
▁air	-716
▁mat	-717
▁episode	-718
tend	-719
irect	-720
▁said	-721
▁stud	-722
▁many	-723
ute	-724
▁bro	-725
ash	-726
ative	-727
▁dep	-728
▁car	-729
▁could	-730
▁orig	-731
▁war	-732
▁contin	-733
▁Cl	-734
▁several	-735
▁American	-736
though	-737
▁dif	-738
▁Ind	-739
ield	-740
ah	-741
▁inst	-742
▁pop	-743
ouse	-744
ise	-745
emb	-746
▁known	-747
ty	-748
ually	-749
▁Aust	-750
▁conc	-751
til	-752
iam	-753
▁War	-754
view	-755
erson	-756
▁ob	-757
ued	-758
▁Ger	-759
▁sm	-760
▁return	-761
▁any	-762
▁began	-763
▁Z	-764
ern	-765
▁comple	-766
▁design	-767
▁De	-768
▁desc	-769
▁sign	-770
ople	-771
chool	-772
ross	-773
my	-774
ism	-775
oot	-776
▁est	-777
▁trans	-778
ccess	-779
▁prov	-780
aking	-781
▁feat	-782
▁Bl	-783
ided	-784
▁inf	-785
anc	-786
▁run	-787
▁early	-788
▁art	-789
ized	-790
▁dist	-791
▁music	-792
▁own	-793
▁near	-794
▁released	-795
▁until	-796
▁called	-797
▁eff	-798
▁Col	-799
imes	-800
▁US	-801
rid	-802
ists	-803
▁resp	-804
une	-805
▁bel	-806
enn	-807
▁pass	-808
stem	-809
ured	-810
▁fin	-811
ially	-812
▁May	-813
▁ph	-814
ution	-815
▁down	-816
▁disc	-817
ments	-818
▁crit	-819
osed	-820
xt	-821
▁direct	-822
▁gener	-823
▁along	-824
ium	-825
▁ins	-826
▁million	-827
ger	-828
ull	-829
▁British	-830
ax	-831
▁group	-832
▁offic	-833
vent	-834
▁German	-835
▁fam	-836
eb	-837
▁these	-838
ajor	-839
▁mod	-840
▁may	-841
▁$	-842
cept	-843
▁Ad	-844
▁open	-845
ange	-846
▁mil	-847
▁Be	-848
▁poin	-849
uc	-850
gg	-851
▁land	-852
▁sim	-853
▁hist	-854
▁Aug	-855
▁govern	-856
▁Sept	-857
▁success	-858
▁September	-859
▁August	-860
ets	-861
▁Ap	-862
▁World	-863
▁States	-864
ible	-865
ink	-866
erv	-867
▁gu	-868
▁oper	-869
▁count	-870
▁attack	-871
▁use	-872
▁same	-873
ys	-874
wards	-875
▁describ	-876
▁people	-877
▁Is	-878
▁For	-879
aced	-880
▁character	-881
yp	-882
amed	-883
▁because	-884
▁All	-885
els	-886
▁vi	-887
▁like	-888
▁serv	-889
▁Ju	-890
▁Fran	-891
ged	-892
▁around	-893
▁start	-894
▁though	-895
▁ed	-896
▁Pl	-897
▁Q	-898
ner	-899
▁win	-900
▁km	-901
▁const	-902
ues	-903
ring	-904
▁took	-905
▁occ	-906
ruct	-907
aving	-908
▁Austral	-909
▁batt	-910
▁Oct	-911
▁ann	-912
▁support	-913
ove	-914
▁Nov	-915
▁following	-916
▁six	-917
▁north	-918
▁ele	-919
▁Car	-920
▁However	-921
▁system	-922
▁appear	-923
uss	-924
▁final	-925
▁received	-926
▁class	-927
ined	-928
▁October	-929
▁head	-930
ives	-931
▁prom	-932
▁consid	-933
ene	-934
ants	-935
rad	-936
ling	-937
ility	-938
ically	-939
▁Dec	-940
▁Pro	-941
▁ever	-942
▁state	-943
▁build	-944
ret	-945
▁each	-946
anu	-947
▁ext	-948
▁five	-949
rist	-950
▁aut	-951
rol	-952
▁York	-953
▁century	-954
ina	-955
▁var	-956
▁bo	-957
▁will	-958
▁area	-959
▁They	-960
ately	-961
▁small	-962
get	-963
oss	-964
▁partic	-965
▁life	-966
▁North	-967
iving	-968
ril	-969
▁report	-970
▁]	-971
▁Me	-972
▁[	-973
tle	-974
ored	-975
▁By	-976
▁June	-977
ians	-978
ording	-979
▁city	-980
gin	-981
▁mar	-982
ped	-983
▁King	-984
▁major	-985
▁week	-986
▁public	-987
▁July	-988
▁%	-989
ission	-990
▁conf	-991
▁Har	-992
▁band	-993
ection	-994
▁ref	-995
med	-996
▁November	-997
inc	-998
urch	-999
▁rest	-1000
▁Comm	-1001
▁Will	-1002
▁world	-1003
▁Ph	-1004
▁med	-1005
▁since	-1006
esp	-1007
▁single	-1008
raft	-1009
raph	-1010
por	-1011
▁April	-1012
ble	-1013
▁Mc	-1014
ains	-1015
ried	-1016
lish	-1017
▁det	-1018
▁March	-1019
omet	-1020
▁just	-1021
▁last	-1022
ected	-1023
ural	-1024
..	-1025
ional	-1026
hest	-1027
▁Ed	-1028
aim	-1029
▁turn	-1030
ively	-1031
▁hel	-1032
ilt	-1033
▁allow	-1034
▁po	-1035
▁Can	-1036
cl	-1037
ient	-1038
vious	-1039
▁Ge	-1040
▁left	-1041
▁large	-1042
▁line	-1043
ats	-1044
▁differ	-1045
ales	-1046
▁South	-1047
▁care	-1048
▁south	-1049
▁adv	-1050
ified	-1051
▁During	-1052
▁...	-1053
▁dr	-1054
▁str	-1055
▁book	-1056
▁vers	-1057
empt	-1058
▁school	-1059
▁sl	-1060
ague	-1061
▁December	-1062
▁third	-1063
avy	-1064
▁incre	-1065
▁month	-1066
▁due	-1067
▁appro	-1068
▁played	-1069
▁much	-1070
▁event	-1071
row	-1072
▁Pr	-1073
▁if	-1074
rote	-1075
▁another	-1076
▁Janu	-1077
▁January	-1078
▁included	-1079
▁what	-1080
▁place	-1081
▁based	-1082
▁short	-1083
ne	-1084
▁II	-1085
ony	-1086
▁expl	-1087
▁government	-1088
▁person	-1089
ball	-1090
▁wrote	-1091
▁When	-1092
▁track	-1093
apan	-1094
▁camp	-1095
▁tit	-1096
▁old	-1097
▁Eu	-1098
▁bre	-1099
alf	-1100
▁name	-1101
▁death	-1102
▁port	-1103
▁elect	-1104
ently	-1105
ple	-1106
rent	-1107
▁Japan	-1108
ience	-1109
▁eng	-1110
▁won	-1111
by	-1112
▁Or	-1113
▁child	-1114
▁prot	-1115
▁lit	-1116
▁kill	-1117
▁prog	-1118
oad	-1119
▁story	-1120
ideo	-1121
ages	-1122
▁power	-1123
▁Bro	-1124
▁review	-1125
▁Te	-1126
ody	-1127
▁vis	-1128
ital	-1129
▁home	-1130
ott	-1131
▁led	-1132
ps	-1133
▁described	-1134
eng	-1135
▁requ	-1136
oman	-1137
▁previous	-1138
▁family	-1139
▁gun	-1140
rand	-1141
tain	-1142
▁way	-1143
yl	-1144
▁named	-1145
▁right	-1146
▁now	-1147
▁Mus	-1148
▁dem	-1149
urther	-1150
iod	-1151
iven	-1152
▁men	-1153
ilar	-1154
▁even	-1155
▁make	-1156
embers	-1157
▁organ	-1158
▁Gu	-1159
reen	-1160
ister	-1161
ont	-1162
cy	-1163
iversity	-1164
omin	-1165
▁attempt	-1166
▁best	-1167
itions	-1168
▁cour	-1169
▁repl	-1170
ivision	-1171
▁opp	-1172
▁leg	-1173
rench	-1174
▁games	-1175
ior	-1176
ached	-1177
▁term	-1178
▁And	-1179
▁command	-1180
ival	-1181
▁hand	-1182
▁Fl	-1183
▁poss	-1184
mp	-1185
▁belie	-1186
▁dam	-1187
▁very	-1188
ox	-1189
▁His	-1190
▁those	-1191
▁Feb	-1192
▁Europ	-1193
▁par	-1194
▁Febru	-1195
▁February	-1196
sh	-1197
▁iss	-1198
▁still	-1199
▁top	-1200
▁next	-1201
▁species	-1202
▁Christ	-1203
▁effect	-1204
riend	-1205
▁view	-1206
ched	-1207
▁There	-1208
▁National	-1209
oci	-1210
▁original	-1211
aken	-1212
▁We	-1213
ature	-1214
▁spe	-1215
ences	-1216
lu	-1217
▁water	-1218
ness	-1219
▁addition	-1220
▁join	-1221
▁Bar	-1222
▁Europe	-1223
▁list	-1224
au	-1225
▁period	-1226
▁within	-1227
alk	-1228
▁members	-1229
▁mark	-1230
eter	-1231
▁deb	-1232
▁held	-1233
▁built	-1234
▁French	-1235
▁exper	-1236
hor	-1237
af	-1238
▁Am	-1239
▁release	-1240
▁Par	-1241
▁late	-1242
▁although	-1243
▁former	-1244
rew	-1245
▁match	-1246
▁great	-1247
augh	-1248
ridge	-1249
ney	-1250
▁cur	-1251
▁dest	-1252
▁sold	-1253
uted	-1254
tended	-1255
▁video	-1256
ards	-1257
▁caus	-1258
▁West	-1259
line	-1260
▁storm	-1261
▁cover	-1262
▁X	-1263
ves	-1264
ech	-1265
▁init	-1266
▁role	-1267
ropical	-1268
▁tri	-1269
▁William	-1270
self	-1271
▁came	-1272
▁estab	-1273
hel	-1274
▁Her	-1275
▁days	-1276
ances	-1277
▁result	-1278
▁mid	-1279
▁present	-1280
na	-1281
lev	-1282
▁control	-1283
aged	-1284
ption	-1285
oon	-1286
ulation	-1287
▁stand	-1288
▁real	-1289
▁polit	-1290
▁however	-1291
▁Min	-1292
itary	-1293
aster	-1294
ham	-1295
▁prop	-1296
let	-1297
ense	-1298
▁Man	-1299
atic	-1300
ides	-1301
▁few	-1302
▁town	-1303
▁wind	-1304
▁Geor	-1305
omb	-1306
▁you	-1307
ograph	-1308
▁tw	-1309
▁side	-1310
▁sk	-1311
▁continued	-1312
▁often	-1313
▁equ	-1314
▁post	-1315
▁Ear	-1316
ays	-1317
▁local	-1318
elt	-1319
▁Char	-1320
ator	-1321
▁among	-1322
▁Air	-1323
▁similar	-1324
ruction	-1325
ead	-1326
ches	-1327
▁Mich	-1328
ract	-1329
▁hum	-1330
▁av	-1331
▁claim	-1332
▁No	-1333
estern	-1334
omen	-1335
▁&	-1336
ung	-1337
▁England	-1338
reet	-1339
read	-1340
akes	-1341
▁different	-1342
side	-1343
ese	-1344
ops	-1345
▁my	-1346
▁del	-1347
ler	-1348
▁Rec	-1349
▁beh	-1350
ology	-1351
par	-1352
▁typ	-1353
▁further	-1354
▁sent	-1355
esc	-1356
▁Dav	-1357
ots	-1358
ested	-1359
▁level	-1360
urs	-1361
▁fre	-1362
▁considered	-1363
▁take	-1364
▁law	-1365
ery	-1366
▁El	-1367
▁tot	-1368
gy	-1369
▁career	-1370
▁One	-1371
ront	-1372
▁production	-1373
arm	-1374
me	-1375
▁half	-1376
ices	-1377
▁Park	-1378
▁Co	-1379
▁ant	-1380
▁City	-1381
ampions	-1382
▁having	-1383
bo	-1384
▁Acc	-1385
▁English	-1386
▁mag	-1387
▁road	-1388
▁east	-1389
▁moved	-1390
▁dra	-1391
ering	-1392
▁every	-1393
▁west	-1394
▁without	-1395
▁Although	-1396
rodu	-1397
▁cr	-1398
▁Cent	-1399
▁appe	-1400
▁plan	-1401
▁player	-1402
ining	-1403
▁position	-1404
▁cor	-1405
▁become	-1406
▁arr	-1407
▁history	-1408
▁version	-1409
vers	-1410
▁tro	-1411
▁Cal	-1412
ford	-1413
▁Ang	-1414
ondon	-1415
ones	-1416
▁cast	-1417
▁Count	-1418
▁el	-1419
▁influ	-1420
ize	-1421
▁arm	-1422
▁London	-1423
▁house	-1424
yle	-1425
▁sound	-1426
rig	-1427
▁fore	-1428
▁commun	-1429
resent	-1430
irc	-1431
app	-1432
▁Batt	-1433
▁gr	-1434
▁club	-1435
▁sugg	-1436
roy	-1437
aul	-1438
atter	-1439
▁strong	-1440
▁invol	-1441
ai	-1442
▁written	-1443
aining	-1444
▁With	-1445
▁bas	-1446
▁stat	-1447
▁less	-1448
oung	-1449
utes	-1450
▁announ	-1451
rest	-1452
▁foot	-1453
▁River	-1454
iqu	-1455
ald	-1456
▁order	-1457
▁refer	-1458
iety	-1459
iment	-1460
ges	-1461
▁prof	-1462
craft	-1463
▁Canad	-1464
ae	-1465
▁aff	-1466
▁point	-1467
sequ	-1468
▁tem	-1469
▁given	-1470
▁rad	-1471
▁low	-1472
▁trad	-1473
▁hig	-1474
▁want	-1475
▁Gener	-1476
▁University	-1477
ille	-1478
▁ke	-1479
▁gave	-1480
▁pat	-1481
uck	-1482
isc	-1483
▁import	-1484
▁Pol	-1485
▁never	-1486
aff	-1487
▁While	-1488
▁chang	-1489
▁defe	-1490
ories	-1491
▁soc	-1492
▁returned	-1493
ration	-1494
▁Ab	-1495
▁vict	-1496
▁total	-1497
▁fact	-1498
▁High	-1499
▁good	-1500
ention	-1501
▁Tr	-1502
▁company	-1503
▁fire	-1504
sp	-1505
ailed	-1506
▁country	-1507
▁went	-1508
ison	-1509
▁comb	-1510
cess	-1511
▁friend	-1512
ours	-1513
rick	-1514
▁Ex	-1515
▁capt	-1516
▁published	-1517
aun	-1518
▁produced	-1519
levision	-1520
▁find	-1521
aying	-1522
con	-1523
▁reported	-1524
▁origin	-1525
▁Sm	-1526
aign	-1527
▁lost	-1528
▁stated	-1529
▁common	-1530
▁program	-1531
ington	-1532
▁light	-1533
yn	-1534
▁particular	-1535
ape	-1536
▁ord	-1537
echn	-1538
▁adm	-1539
▁include	-1540
ests	-1541
▁According	-1542
▁larg	-1543
ably	-1544
urric	-1545
▁compet	-1546
▁er	-1547
used	-1548
▁recorded	-1549
ief	-1550
▁building	-1551
▁press	-1552
▁Ste	-1553
▁need	-1554
▁Ne	-1555
▁bus	-1556
▁project	-1557
hing	-1558
▁forces	-1559
ument	-1560
▁nort	-1561
▁ships	-1562
▁should	-1563
▁using	-1564
▁eight	-1565
▁performance	-1566
iness	-1567
▁Sw	-1568
▁service	-1569
bs	-1570
▁popular	-1571
▁ide	-1572
ploy	-1573
▁These	-1574
▁times	-1575
osp	-1576
▁making	-1577
▁ten	-1578
▁aircraft	-1579
▁himself	-1580
oyal	-1581
▁fun	-1582
▁author	-1583
▁father	-1584
atch	-1585
▁military	-1586
▁Australia	-1587
▁Sec	-1588
▁anim	-1589
lear	-1590
▁battle	-1591
ampionship	-1592
▁Jack	-1593
ned	-1594
▁Ass	-1595
▁sit	-1596
▁lim	-1597
▁songs	-1598
▁somet	-1599
▁read	-1600
▁Af	-1601
outher	-1602
▁critic	-1603
ensive	-1604
ither	-1605
ords	-1606
▁development	-1607
▁sw	-1608
▁gl	-1609
▁how	-1610
▁General	-1611
alth	-1612
eth	-1613
▁sol	-1614
itive	-1615
eder	-1616
ases	-1617
quad	-1618
▁State	-1619
oll	-1620
▁Cor	-1621
outhern	-1622
▁James	-1623
▁cross	-1624
cer	-1625
amb	-1626
▁represent	-1627
▁Sy	-1628
▁ground	-1629
▁destroy	-1630
acy	-1631
▁star	-1632
▁ft	-1633
▁remained	-1634
astern	-1635
▁ste	-1636
ks	-1637
rie	-1638
▁characters	-1639
▁Army	-1640
▁national	-1641
▁Pres	-1642
▁get	-1643
ries	-1644
work	-1645
▁months	-1646
▁suff	-1647
▁gen	-1648
▁Bo	-1649
▁died	-1650
aur	-1651
▁ter	-1652
▁Gl	-1653
▁Comp	-1654
ublic	-1655
▁developed	-1656
▁title	-1657
dom	-1658
▁sum	-1659
▁chart	-1660
fic	-1661
▁campaign	-1662
ream	-1663
urricane	-1664
▁force	-1665
▁League	-1666
▁children	-1667
▁introdu	-1668
lands	-1669
ency	-1670
▁pra	-1671
▁tour	-1672
▁promot	-1673
itted	-1674
isted	-1675
ael	-1676
▁son	-1677
▁signific	-1678
▁red	-1679
▁across	-1680
▁away	-1681
ression	-1682
hern	-1683
▁relations	-1684
▁obs	-1685
▁histor	-1686
▁field	-1687
▁official	-1688
▁Division	-1689
▁fav	-1690
▁felt	-1691
ole	-1692
lege	-1693
▁America	-1694
▁noted	-1695
▁fac	-1696
▁Sim	-1697
▁night	-1698
alt	-1699
▁announced	-1700
most	-1701
▁reached	-1702
▁Russ	-1703
▁intern	-1704
▁Sup	-1705
▁created	-1706
▁County	-1707
▁areas	-1708
com	-1709
▁Rep	-1710
▁Mon	-1711
▁television	-1712
▁coun	-1713
▁Road	-1714
▁Japanese	-1715
▁station	-1716
hem	-1717
ressed	-1718
▁successful	-1719
▁Mad	-1720
▁rock	-1721
imately	-1722
▁val	-1723
▁Gr	-1724
▁Reg	-1725
ising	-1726
▁various	-1727
▁’	-1728
▁bar	-1729
▁Street	-1730
▁political	-1731
▁seen	-1732
▁followed	-1733
▁aver	-1734
field	-1735
iber	-1736
iting	-1737
▁too	-1738
▁rank	-1739
ett	-1740
▁East	-1741
ope	-1742
▁performed	-1743
cast	-1744
▁Rober	-1745
▁cult	-1746
ization	-1747
▁served	-1748
▁players	-1749
▁front	-1750
reg	-1751
▁rev	-1752
ality	-1753
▁George	-1754
▁cond	-1755
▁full	-1756
▁prim	-1757
▁decl	-1758
▁black	-1759
ination	-1760
elling	-1761
▁begin	-1762
duct	-1763
▁fle	-1764
▁put	-1765
▁Ser	-1766
▁circ	-1767
▁conv	-1768
▁earl	-1769
▁Per	-1770
olution	-1771
▁To	-1772
▁Hen	-1773
▁cost	-1774
abor	-1775
idence	-1776
▁see	-1777
▁process	-1778
▁non	-1779
▁div	-1780
▁style	-1781
ying	-1782
▁look	-1783
▁Phil	-1784
▁seven	-1785
▁vol	-1786
▁aud	-1787
▁killed	-1788
▁Em	-1789
▁cy	-1790
▁help	-1791
rict	-1792
▁let	-1793
play	-1794
lished	-1795
▁throughout	-1796
▁Bill	-1797
▁taken	-1798
▁tropical	-1799
▁able	-1800
ana	-1801
▁fight	-1802
▁discover	-1803
▁agre	-1804
ecut	-1805
ertain	-1806
▁little	-1807
▁wid	-1808
▁becom	-1809
▁fem	-1810
▁age	-1811
urg	-1812
▁significant	-1813
▁Sch	-1814
▁hit	-1815
▁meet	-1816
▁ident	-1817
▁Thom	-1818
ways	-1819
irl	-1820
▁techn	-1821
▁special	-1822
▁cop	-1823
oice	-1824
▁writing	-1825
▁struct	-1826
▁David	-1827
▁thought	-1828
▁established	-1829
▁Part	-1830
▁broad	-1831
▁Act	-1832
enced	-1833
▁Mor	-1834
▁mm	-1835
▁appeared	-1836
▁does	-1837
▁coll	-1838
▁entire	-1839
▁Australian	-1840
aval	-1841
cil	-1842
epend	-1843
▁!	-1844
▁young	-1845
▁coast	-1846
▁points	-1847
▁miles	-1848
ius	-1849
▁body	-1850
▁award	-1851
less	-1852
▁impro	-1853
▁Rich	-1854
▁route	-1855
▁member	-1856
odes	-1857
ought	-1858
▁Med	-1859
ground	-1860
ript	-1861
▁women	-1862
▁activ	-1863
▁range	-1864
ster	-1865
ask	-1866
▁Pe	-1867
ivil	-1868
▁You	-1869
▁caused	-1870
▁started	-1871
▁decided	-1872
iers	-1873
blem	-1874
▁features	-1875
lected	-1876
day	-1877
▁Afric	-1878
▁general	-1879
▁pain	-1880
▁Qu	-1881
▁eventually	-1882
ators	-1883
iron	-1884
iec	-1885
int	-1886
umb	-1887
men	-1888
conom	-1889
oph	-1890
ogn	-1891
uk	-1892
den	-1893
▁Royal	-1894
▁race	-1895
▁arch	-1896
▁vot	-1897
here	-1898
itar	-1899
▁grow	-1900
▁manag	-1901
▁feet	-1902
pped	-1903
rison	-1904
gether	-1905
▁together	-1906
ush	-1907
▁added	-1908
▁Hist	-1909
▁House	-1910
▁tre	-1911
▁hold	-1912
bert	-1913
▁cut	-1914
ivid	-1915
▁white	-1916
▁once	-1917
▁nov	-1918
ample	-1919
ament	-1920
▁formed	-1921
▁arg	-1922
▁located	-1923
▁stri	-1924
reek	-1925
urb	-1926
▁conn	-1927
▁modern	-1928
off	-1929
▁Black	-1930
▁enc	-1931
▁instead	-1932
dle	-1933
▁Port	-1934
head	-1935
rought	-1936
aces	-1937
▁round	-1938
▁esc	-1939
▁ball	-1940
ara	-1941
emy	-1942
▁mix	-1943
▁Intern	-1944
▁important	-1945
ee	-1946
▁pri	-1947
cing	-1948
▁crew	-1949
▁saw	-1950
▁action	-1951
▁completed	-1952
▁redu	-1953
▁Ital	-1954
▁playing	-1955
ects	-1956
▁Indian	-1957
ids	-1958
oney	-1959
cent	-1960
rated	-1961
▁Other	-1962
ells	-1963
ata	-1964
▁insp	-1965
▁base	-1966
▁mater	-1967
▁population	-1968
▁My	-1969
▁mot	-1970
▁surv	-1971
▁Michael	-1972
▁voc	-1973
▁ask	-1974
▁rather	-1975
▁occur	-1976
▁opened	-1977
▁stage	-1978
▁behind	-1979
▁others	-1980
ray	-1981
▁fall	-1982
▁ren	-1983
▁guns	-1984
asing	-1985
ceed	-1986
▁brother	-1987
wood	-1988
ements	-1989
igned	-1990
▁comment	-1991
lin	-1992
▁lik	-1993
stit	-1994
▁born	-1995
▁fif	-1996
▁site	-1997
▁live	-1998
▁works	-1999
▁loss	-2000
▁France	-2001
▁bomb	-2002
▁worked	-2003
ficult	-2004
▁heavy	-2005
▁miss	-2006
▁pred	-2007
▁School	-2008
medi	-2009
rap	-2010
▁subsequ	-2011
▁lack	-2012
▁party	-2013
▁problem	-2014
nder	-2015
lection	-2016
▁difficult	-2017
▁close	-2018
▁Wash	-2019
▁construction	-2020
▁know	-2021
▁Nor	-2022
▁Some	-2023
▁relationship	-2024
▁host	-2025
▁weeks	-2026
istic	-2027
▁San	-2028
▁originally	-2029
▁separ	-2030
▁associ	-2031
arch	-2032
co	-2033
▁upon	-2034
▁pract	-2035
▁reb	-2036
▁Henry	-2037
▁leading	-2038
▁appoin	-2039
▁accom	-2040
▁vill	-2041
▁almost	-2042
▁mer	-2043
▁Robert	-2044
orts	-2045
▁peak	-2046
▁Ale	-2047
▁inj	-2048
▁damage	-2049
lic	-2050
unk	-2051
▁scored	-2052
▁fourth	-2053
osition	-2054
▁inform	-2055
▁reve	-2056
▁Music	-2057
aps	-2058
▁provided	-2059
▁Best	-2060
ming	-2061
▁case	-2062
▁Vir	-2063
▁Star	-2064
▁goal	-2065
▁clos	-2066
▁Battle	-2067
board	-2068
▁engine	-2069
▁creat	-2070
▁Red	-2071
▁accept	-2072
▁mi	-2073
▁invest	-2074
ica	-2075
oring	-2076
▁scene	-2077
ellow	-2078
▁Desp	-2079
▁human	-2080
angu	-2081
ule	-2082
ino	-2083
ological	-2084
▁brought	-2085
▁free	-2086
▁individ	-2087
▁Paul	-2088
▁featured	-2089
ula	-2090
▁mother	-2091
▁President	-2092
▁Rou	-2093
▁king	-2094
▁least	-2095
ama	-2096
▁working	-2097
aut	-2098
▁allowed	-2099
▁laun	-2100
▁resul	-2101
▁Mil	-2102
▁average	-2103
▁Cap	-2104
▁wanted	-2105
▁towards	-2106
▁mult	-2107
▁indust	-2108
▁tradition	-2109
aves	-2110
▁region	-2111
▁business	-2112
▁Washington	-2113
▁Hol	-2114
iding	-2115
azine	-2116
▁Ag	-2117
▁Que	-2118
▁ve	-2119
▁quick	-2120
▁troops	-2121
▁placed	-2122
▁either	-2123
▁ce	-2124
▁respect	-2125
ving	-2126
▁office	-2127
▁critics	-2128
ky	-2129
▁Bel	-2130
▁avail	-2131
▁hon	-2132
antic	-2133
▁reach	-2134
▁profess	-2135
▁example	-2136
▁runs	-2137
▁material	-2138
▁econom	-2139
▁recogn	-2140
▁far	-2141
ened	-2142
▁wife	-2143
ze	-2144
go	-2145
earch	-2146
to	-2147
chie	-2148
▁neg	-2149
▁estim	-2150
ential	-2151
▁army	-2152
▁foc	-2153
right	-2154
▁Despite	-2155
▁sex	-2156
▁interest	-2157
▁Follow	-2158
▁Cour	-2159
▁sour	-2160
ength	-2161
▁generally	-2162
▁mass	-2163
▁joined	-2164
▁dou	-2165
▁rail	-2166
quadron	-2167
▁Ham	-2168
▁proper	-2169
ills	-2170
▁Angel	-2171
uff	-2172
enes	-2173
▁current	-2174
▁dev	-2175
ourn	-2176
▁Hall	-2177
▁Cup	-2178
▁events	-2179
▁believed	-2180
▁Game	-2181
itch	-2182
of	-2183
▁particip	-2184
rey	-2185
be	-2186
▁fig	-2187
▁Following	-2188
▁Ke	-2189
ville	-2190
▁First	-2191
▁Mary	-2192
▁Dr	-2193
▁z	-2194
▁victory	-2195
▁replaced	-2196
▁Lou	-2197
▁Great	-2198
artment	-2199
▁designed	-2200
▁mph	-2201
iction	-2202
▁grad	-2203
▁Je	-2204
▁rul	-2205
itte	-2206
▁soon	-2207
▁nomin	-2208
sc	-2209
▁island	-2210
▁Gro	-2211
▁fund	-2212
xic	-2213
▁La	-2214
erous	-2215
oor	-2216
▁hours	-2217
▁European	-2218
▁Two	-2219
▁employ	-2220
▁president	-2221
▁Mal	-2222
▁room	-2223
ification	-2224
▁involved	-2225
aled	-2226
uel	-2227
▁surf	-2228
val	-2229
aper	-2230
▁finished	-2231
merc	-2232
▁stru	-2233
▁Championship	-2234
inn	-2235
inist	-2236
asion	-2237
west	-2238
▁Mart	-2239
inf	-2240
▁Play	-2241
▁break	-2242
▁Roman	-2243
▁hor	-2244
rain	-2245
aren	-2246
iff	-2247
▁saying	-2248
arn	-2249
emor	-2250
▁court	-2251
▁shot	-2252
▁threat	-2253
▁Ber	-2254
▁score	-2255
▁opening	-2256
▁regular	-2257
▁Dan	-2258
BC	-2259
▁desp	-2260
▁director	-2261
▁length	-2262
▁Met	-2263
▁Mac	-2264
▁Don	-2265
▁indic	-2266
ades	-2267
leg	-2268
cher	-2269
▁Scott	-2270
▁conduct	-2271
▁largest	-2272
▁travel	-2273
▁contrib	-2274
▁hom	-2275
oul	-2276
ki	-2277
ecutive	-2278
▁possible	-2279
▁ill	-2280
ude	-2281
now	-2282
▁minutes	-2283
▁highway	-2284
▁Route	-2285
▁southern	-2286
ishing	-2287
▁dro	-2288
▁Cro	-2289
▁hy	-2290
▁Val	-2291
icle	-2292
▁highest	-2293
▁remov	-2294
▁From	-2295
▁earlier	-2296
▁test	-2297
▁Atl	-2298
▁initially	-2299
ago	-2300
▁Sing	-2301
▁ly	-2302
▁available	-2303
▁particularly	-2304
▁percent	-2305
ander	-2306
antry	-2307
▁Wil	-2308
▁hard	-2309
anned	-2310
▁sequ	-2311
▁training	-2312
▁Republic	-2313
▁forced	-2314
▁must	-2315
▁exist	-2316
ply	-2317
▁Mid	-2318
ipp	-2319
hib	-2320
▁Mag	-2321
▁Charles	-2322
▁Kingdom	-2323
▁Navy	-2324
ography	-2325
asy	-2326
▁°	-2327
▁park	-2328
rian	-2329
bor	-2330
ateg	-2331
▁respons	-2332
▁ended	-2333
▁quar	-2334
rac	-2335
▁McC	-2336
▁Off	-2337
▁turned	-2338
▁wall	-2339
▁Thomas	-2340
▁exc	-2341
▁social	-2342
▁International	-2343
uture	-2344
▁But	-2345
▁studio	-2346
▁Pal	-2347
ems	-2348
iforn	-2349
▁Res	-2350
rag	-2351
▁Dep	-2352
ios	-2353
▁change	-2354
▁White	-2355
▁langu	-2356
▁Virgin	-2357
▁praised	-2358
▁passed	-2359
▁super	-2360
▁priv	-2361
▁bill	-2362
atural	-2363
▁piec	-2364
▁increased	-2365
▁object	-2366
▁Brown	-2367
rup	-2368
▁educ	-2369
▁hurricane	-2370
▁regard	-2371
▁northern	-2372
heast	-2373
▁keep	-2374
▁phys	-2375
▁central	-2376
ights	-2377
▁Church	-2378
itor	-2379
▁novel	-2380
▁relig	-2381
▁Canada	-2382
sel	-2383
▁speed	-2384
▁appearance	-2385
▁Californ	-2386
▁units	-2387
▁past	-2388
rem	-2389
ership	-2390
▁Rock	-2391
▁Sl	-2392
key	-2393
▁stop	-2394
▁church	-2395
▁Sen	-2396
ended	-2397
▁cou	-2398
▁immedi	-2399
▁Bay	-2400
uter	-2401
▁sym	-2402
ston	-2403
▁Mo	-2404
▁Smith	-2405
ocr	-2406
▁disp	-2407
▁meas	-2408
▁ordered	-2409
aughter	-2410
▁Mer	-2411
▁treat	-2412
ique	-2413
▁Sam	-2414
▁taking	-2415
ference	-2416
▁Richard	-2417
rying	-2418
ittee	-2419
▁independ	-2420
▁love	-2421
▁Alex	-2422
▁signed	-2423
▁move	-2424
ilities	-2425
▁California	-2426
▁achie	-2427
etwork	-2428
▁better	-2429
ump	-2430
▁pers	-2431
▁Union	-2432
itz	-2433
aker	-2434
▁God	-2435
▁ap	-2436
▁Govern	-2437
ecess	-2438
arily	-2439
▁inn	-2440
▁winds	-2441
▁Island	-2442
▁commerc	-2443
▁enough	-2444
▁wat	-2445
▁positive	-2446
ears	-2447
nel	-2448
ume	-2449
▁Court	-2450
▁according	-2451
▁hous	-2452
▁spent	-2453
elled	-2454
▁going	-2455
▁pot	-2456
▁above	-2457
▁Bra	-2458
anks	-2459
▁slow	-2460
▁outside	-2461
▁films	-2462
apt	-2463
▁Tom	-2464
▁Vict	-2465
▁Up	-2466
▁Cong	-2467
▁feel	-2468
▁told	-2469
▁football	-2470
ma	-2471
▁Award	-2472
berg	-2473
quare	-2474
▁clear	-2475
▁previously	-2476
uation	-2477
▁quest	-2478
▁states	-2479
▁recording	-2480
▁mean	-2481
anding	-2482
▁Associ	-2483
▁Ac	-2484
▁nine	-2485
het	-2486
▁pur	-2487
usion	-2488
▁subject	-2489
▁Art	-2490
▁failed	-2491
atin	-2492
ows	-2493
▁assist	-2494
▁come	-2495
▁Company	-2496
▁required	-2497
reng	-2498
osing	-2499
▁elements	-2500
▁prob	-2501
van	-2502
▁ey	-2503
ida	-2504
▁Stud	-2505
▁cru	-2506
alion	-2507
▁India	-2508
▁lower	-2509
▁Germany	-2510
▁reviews	-2511
▁interview	-2512
edy	-2513
▁phot	-2514
▁parts	-2515
▁Mark	-2516
▁Peter	-2517
▁Gold	-2518
▁itself	-2519
▁Christian	-2520
▁nar	-2521
▁sil	-2522
▁think	-2523
nes	-2524
ranch	-2525
ship	-2526
▁directed	-2527
▁abs	-2528
isl	-2529
▁esp	-2530
▁flow	-2531
ibility	-2532
▁despite	-2533
▁cred	-2534
amer	-2535
▁contract	-2536
oke	-2537
▁NY	-2538
▁That	-2539
▁debut	-2540
▁?	-2541
▁Times	-2542
▁£	-2543
▁Pat	-2544
erved	-2545
▁access	-2546
ready	-2547
leb	-2548
▁Cast	-2549
▁beginning	-2550
oid	-2551
▁bi	-2552
▁groups	-2553
▁College	-2554
▁viol	-2555
onna	-2556
▁Hill	-2557
▁section	-2558
▁UK	-2559
▁Sov	-2560
ability	-2561
hester	-2562
▁whose	-2563
▁Br	-2564
asons	-2565
▁claimed	-2566
▁Western	-2567
▁international	-2568
▁asked	-2569
▁lines	-2570
▁transfer	-2571
▁prevent	-2572
▁Dem	-2573
▁streng	-2574
▁screen	-2575
▁give	-2576
airs	-2577
▁che	-2578
▁Soviet	-2579
onse	-2580
rief	-2581
▁unc	-2582
▁beg	-2583
▁key	-2584
▁additional	-2585
▁Film	-2586
▁future	-2587
mar	-2588
▁Grand	-2589
▁Mexic	-2590
▁league	-2591
▁whom	-2592
▁Frank	-2593
▁op	-2594
▁Do	-2595
▁Span	-2596
▁gold	-2597
▁poor	-2598
▁Ben	-2599
▁Awards	-2600
▁fort	-2601
lying	-2602
▁introduced	-2603
▁evidence	-2604
▁don	-2605
▁prem	-2606
ites	-2607
onst	-2608
▁sea	-2609
▁idea	-2610
ex	-2611
▁quickly	-2612
▁cal	-2613
atory	-2614
▁already	-2615
▁Soc	-2616
▁center	-2617
▁bridge	-2618
▁frequ	-2619
▁Force	-2620
usp	-2621
▁Most	-2622
▁election	-2623
▁product	-2624
▁occup	-2625
eck	-2626
▁pil	-2627
▁except	-2628
▁Coun	-2629
back	-2630
unt	-2631
▁deal	-2632
irth	-2633
eum	-2634
ecially	-2635
▁pen	-2636
▁usually	-2637
▁musical	-2638
▁emb	-2639
▁arrived	-2640
▁western	-2641
aring	-2642
▁Rob	-2643
▁block	-2644
eal	-2645
▁radio	-2646
▁Britain	-2647
▁civil	-2648
liam	-2649
▁cycl	-2650
ergy	-2651
ully	-2652
▁Over	-2653
▁female	-2654
▁sometimes	-2655
▁Day	-2656
▁study	-2657
▁food	-2658
▁response	-2659
▁decision	-2660
▁money	-2661
▁Pac	-2662
▁magazine	-2663
▁especially	-2664
▁Hot	-2665
▁issue	-2666
▁Later	-2667
asc	-2668
liament	-2669
▁Victor	-2670
▁Im	-2671
▁lab	-2672
▁surface	-2673
▁-	-2674
▁liter	-2675
gen	-2676
rack	-2677
▁flood	-2678
▁might	-2679
aint	-2680
▁env	-2681
▁Chic	-2682
▁Tra	-2683
▁guitar	-2684
▁carried	-2685
▁Bur	-2686
▁shows	-2687
▁community	-2688
▁construct	-2689
ena	-2690
iter	-2691
▁estimated	-2692
▁arran	-2693
▁remain	-2694
aries	-2695
▁Mill	-2696
▁remaining	-2697
▁eastern	-2698
ha	-2699
▁minor	-2700
▁defeated	-2701
▁determ	-2702
▁Rh	-2703
inent	-2704
ession	-2705
▁Virginia	-2706
▁Early	-2707
▁approx	-2708
igan	-2709
▁larger	-2710
raw	-2711
ulf	-2712
▁becoming	-2713
▁rap	-2714
▁wood	-2715
▁complete	-2716
▁Mount	-2717
rab	-2718
ror	-2719
▁police	-2720
▁suggested	-2721
porary	-2722
▁media	-2723
▁pressure	-2724
▁entered	-2725
▁shoot	-2726
▁teams	-2727
rics	-2728
▁Los	-2729
▁Just	-2730
▁commercial	-2731
▁anal	-2732
▁Inf	-2733
▁doc	-2734
▁latter	-2735
ands	-2736
NA	-2737
▁market	-2738
erve	-2739
▁lo	-2740
▁consider	-2741
▁students	-2742
ises	-2743
▁surround	-2744
▁investig	-2745
▁brief	-2746
▁concern	-2747
▁personal	-2748
▁Second	-2749
inct	-2750
▁bur	-2751
▁If	-2752
▁Tex	-2753
▁prison	-2754
▁certain	-2755
▁acqu	-2756
▁discuss	-2757
▁Fle	-2758
▁Jackson	-2759
▁effects	-2760
▁complet	-2761
▁hop	-2762
▁appointed	-2763
alled	-2764
▁der	-2765
▁summer	-2766
▁episodes	-2767
▁Cont	-2768
▁prior	-2769
ederal	-2770
incip	-2771
▁Flor	-2772
▁sat	-2773
▁tar	-2774
change	-2775
▁emer	-2776
▁staff	-2777
enth	-2778
lymp	-2779
▁size	-2780
▁Louis	-2781
ores	-2782
▁changes	-2783
ulated	-2784
▁commission	-2785
sy	-2786
omm	-2787
tt	-2788
imate	-2789
▁winning	-2790
▁limited	-2791
▁scenes	-2792
▁Olymp	-2793
▁fleet	-2794
▁river	-2795
▁leaving	-2796
▁destroyed	-2797
iser	-2798
▁deg	-2799
▁draw	-2800
▁pay	-2801
II	-2802
▁Club	-2803
▁den	-2804
▁rid	-2805
lo	-2806
que	-2807
▁Spanish	-2808
▁self	-2809
ga	-2810
su	-2811
▁rights	-2812
ournal	-2813
▁provide	-2814
▁writer	-2815
ires	-2816
rigade	-2817
▁polic	-2818
sen	-2819
▁type	-2820
idents	-2821
▁fail	-2822
ari	-2823
ension	-2824
▁date	-2825
▁trib	-2826
▁territ	-2827
oms	-2828
▁Kh	-2829
▁girl	-2830
▁proposed	-2831
rd	-2832
▁influence	-2833
ties	-2834
▁Green	-2835
▁Party	-2836
▁overall	-2837
▁tax	-2838
▁kil	-2839
▁transport	-2840
▁structure	-2841
▁Ter	-2842
▁contro	-2843
▁equip	-2844
▁Du	-2845
▁script	-2846
▁division	-2847
▁br	-2848
iral	-2849
inese	-2850
▁Association	-2851
▁agreed	-2852
▁anti	-2853
▁intended	-2854
▁Pri	-2855
▁jud	-2856
▁bow	-2857
▁Edward	-2858
▁running	-2859
ift	-2860
ending	-2861
icles	-2862
▁Chicago	-2863
▁daughter	-2864
▁big	-2865
▁broadcast	-2866
▁purch	-2867
▁nearly	-2868
▁supported	-2869
▁Many	-2870
atives	-2871
AF	-2872
▁Adm	-2873
▁deep	-2874
▁di	-2875
▁research	-2876
▁wide	-2877
imum	-2878
▁establish	-2879
▁Ro	-2880
▁helped	-2881
▁married	-2882
▁movement	-2883
▁Chinese	-2884
▁awarded	-2885
▁multip	-2886
▁Ir	-2887
▁Song	-2888
▁Council	-2889
ili	-2890
▁Oper	-2891
iles	-2892
atively	-2893
acing	-2894
irm	-2895
▁create	-2896
▁favor	-2897
▁intens	-2898
▁diss	-2899
▁Sal	-2900
▁bird	-2901
▁Enter	-2902
▁dark	-2903
▁susp	-2904
pris	-2905
omer	-2906
ny	-2907
teen	-2908
▁stars	-2909
che	-2910
▁longer	-2911
▁language	-2912
▁higher	-2913
▁cat	-2914
▁Ev	-2915
▁planned	-2916
mon	-2917
▁compared	-2918
▁captured	-2919
▁increasing	-2920
▁fans	-2921
▁conclud	-2922
▁course	-2923
uz	-2924
▁changed	-2925
▁Serv	-2926
▁Super	-2927
▁Emp	-2928
▁Johnson	-2929
ounds	-2930
▁experience	-2931
▁approximately	-2932
selves	-2933
▁related	-2934
▁done	-2935
▁feature	-2936
▁fifth	-2937
▁living	-2938
enty	-2939
▁Kore	-2940
▁themselves	-2941
abit	-2942
▁History	-2943
▁producer	-2944
bers	-2945
itt	-2946
tained	-2947
arent	-2948
▁temper	-2949
▁space	-2950
▁tracks	-2951
▁mostly	-2952
ss	-2953
▁Pacific	-2954
isions	-2955
▁withd	-2956
▁Inter	-2957
▁Back	-2958
uth	-2959
anced	-2960
olic	-2961
▁Billboard	-2962
ij	-2963
▁thus	-2964
▁App	-2965
▁Bet	-2966
▁Not	-2967
can	-2968
▁dead	-2969
▁woman	-2970
umn	-2971
▁Mont	-2972
▁operations	-2973
▁imm	-2974
▁remains	-2975
▁syn	-2976
▁bring	-2977
▁quarter	-2978
thing	-2979
▁our	-2980
▁natural	-2981
▁whether	-2982
imin	-2983
vin	-2984
▁ult	-2985
oint	-2986
▁concept	-2987
▁weap	-2988
▁dram	-2989
▁Final	-2990
▁Scot	-2991
anded	-2992
▁probably	-2993
▁soldiers	-2994
▁ran	-2995
▁copies	-2996
rast	-2997
▁Sun	-2998
bour	-2999
▁buildings	-3000
▁leader	-3001
▁voice	-3002
▁boy	-3003
▁face	-3004
▁extended	-3005
▁Since	-3006
▁lyrics	-3007
▁depart	-3008
▁forward	-3009
▁Kn	-3010
▁complex	-3011
▁board	-3012
▁Atlantic	-3013
▁react	-3014
iring	-3015
▁battles	-3016
vey	-3017
▁issued	-3018
▁heav	-3019
▁chall	-3020
riage	-3021
ging	-3022
▁really	-3023
▁countries	-3024
ospital	-3025
rate	-3026
▁suffered	-3027
▁Lake	-3028
▁Congress	-3029
▁cm	-3030
▁Love	-3031
▁Fort	-3032
▁Franc	-3033
▁goals	-3034
▁Florida	-3035
urt	-3036
▁Sever	-3037
▁includes	-3038
▁immediately	-3039
▁meth	-3040
▁Both	-3041
▁attend	-3042
▁Big	-3043
hood	-3044
▁breed	-3045
▁capital	-3046
▁manager	-3047
▁mixed	-3048
▁private	-3049
iant	-3050
▁Jim	-3051
▁Jew	-3052
▁officers	-3053
▁likely	-3054
▁Old	-3055
▁cann	-3056
▁distrib	-3057
hold	-3058
▁Ant	-3059
ien	-3060
▁mach	-3061
▁Queen	-3062
de	-3063
bury	-3064
▁removed	-3065
▁Texas	-3066
▁plant	-3067
▁initial	-3068
▁celeb	-3069
▁Sea	-3070
▁increase	-3071
venue	-3072
▁Town	-3073
▁health	-3074
▁subsequently	-3075
▁Dist	-3076
▁leave	-3077
▁plans	-3078
ria	-3079
▁focus	-3080
▁always	-3081
▁coin	-3082
▁Law	-3083
ections	-3084
▁network	-3085
▁services	-3086
▁mount	-3087
▁via	-3088
▁status	-3089
▁compan	-3090
▁Trans	-3091
▁Tor	-3092
rial	-3093
▁Pet	-3094
▁China	-3095
▁visit	-3096
▁location	-3097
▁Mr	-3098
order	-3099
ams	-3100
▁Another	-3101
iation	-3102
▁flag	-3103
▁problems	-3104
▁Lord	-3105
▁How	-3106
▁Camp	-3107
▁Earth	-3108
▁instr	-3109
▁offered	-3110
well	-3111
ously	-3112
aily	-3113
▁model	-3114
▁terms	-3115
etic	-3116
▁norm	-3117
▁mur	-3118
▁Const	-3119
▁colon	-3120
▁approach	-3121
▁something	-3122
▁village	-3123
▁administ	-3124
▁fell	-3125
▁tons	-3126
ounted	-3127
▁Wood	-3128
wer	-3129
▁Boy	-3130
ctor	-3131
▁Ol	-3132
▁tor	-3133
ironment	-3134
▁sch	-3135
▁majority	-3136
▁Tur	-3137
▁professional	-3138
orning	-3139
▁counter	-3140
▁Canadian	-3141
▁Its	-3142
adium	-3143
▁Rail	-3144
▁got	-3145
ibr	-3146
▁Africa	-3147
▁cause	-3148
▁Mur	-3149
▁consist	-3150
burg	-3151
aches	-3152
uries	-3153
▁inters	-3154
▁damaged	-3155
▁meeting	-3156
▁Gre	-3157
▁job	-3158
▁appears	-3159
▁adop	-3160
▁minute	-3161
▁ranked	-3162
olk	-3163
▁lay	-3164
▁Center	-3165
uf	-3166
▁individual	-3167
oes	-3168
▁composed	-3169
cean	-3170
▁revealed	-3171
▁Squadron	-3172
▁Highway	-3173
ify	-3174
▁ang	-3175
ste	-3176
▁flight	-3177
▁attacks	-3178
▁Russian	-3179
itect	-3180
▁plot	-3181
▁discovered	-3182
▁raised	-3183
lor	-3184
reak	-3185
umed	-3186
▁financ	-3187
▁Rad	-3188
▁Mel	-3189
▁respectively	-3190
▁makes	-3191
pan	-3192
▁Kent	-3193
▁Carol	-3194
▁Martin	-3195
▁Central	-3196
▁Sir	-3197
▁III	-3198
▁numerous	-3199
▁associated	-3200
▁altern	-3201
gar	-3202
▁takes	-3203
▁Angeles	-3204
▁domin	-3205
▁needed	-3206
▁inspired	-3207
▁Bow	-3208
▁anc	-3209
▁lived	-3210
oe	-3211
ault	-3212
▁grand	-3213
▁launched	-3214
▁yet	-3215
ription	-3216
▁cand	-3217
▁nature	-3218
▁amb	-3219
▁pow	-3220
▁dig	-3221
▁coach	-3222
▁occurred	-3223
▁contains	-3224
▁DV	-3225
▁veh	-3226
estival	-3227
▁bene	-3228
▁shown	-3229
▁attempted	-3230
uals	-3231
▁attacked	-3232
▁Des	-3233
uments	-3234
▁moving	-3235
▁conditions	-3236
▁upper	-3237
▁hour	-3238
▁TV	-3239
ka	-3240
iest	-3241
down	-3242
imb	-3243
ken	-3244
▁gra	-3245
▁sales	-3246
ective	-3247
▁Group	-3248
▁Miss	-3249
joy	-3250
▁Year	-3251
▁collect	-3252
▁Del	-3253
aught	-3254
▁Tour	-3255
orce	-3256
▁issues	-3257
▁birth	-3258
▁Rev	-3259
▁whole	-3260
▁sal	-3261
izing	-3262
▁i	-3263
▁exam	-3264
▁cer	-3265
▁information	-3266
▁yards	-3267
▁farm	-3268
▁slight	-3269
▁Empire	-3270
▁Out	-3271
▁box	-3272
urity	-3273
▁mom	-3274
win	-3275
vert	-3276
▁referred	-3277
uing	-3278
▁critical	-3279
oly	-3280
▁incor	-3281
reme	-3282
▁Under	-3283
▁Penn	-3284
▁Gar	-3285
▁numbers	-3286
▁finally	-3287
▁smaller	-3288
▁elected	-3289
▁defeat	-3290
▁resulted	-3291
▁selected	-3292
▁sen	-3293
▁scient	-3294
▁stay	-3295
▁bad	-3296
▁grant	-3297
▁qual	-3298
▁active	-3299
▁singer	-3300
▁princip	-3301
kin	-3302
▁standard	-3303
▁secret	-3304
▁pit	-3305
itation	-3306
▁Italian	-3307
uated	-3308
▁mission	-3309
▁industry	-3310
enant	-3311
▁largely	-3312
▁ens	-3313
▁operation	-3314
▁sem	-3315
andon	-3316
▁Jose	-3317
▁prec	-3318
ortun	-3319
▁link	-3320
onic	-3321
oura	-3322
▁assigned	-3323
use	-3324
▁saf	-3325
▁legisl	-3326
▁earned	-3327
▁thr	-3328
▁commented	-3329
itude	-3330
▁male	-3331
▁expected	-3332
▁DVD	-3333
▁Corps	-3334
iled	-3335
▁Dis	-3336
▁roy	-3337
▁audience	-3338
▁listed	-3339
▁suggest	-3340
▁gre	-3341
oud	-3342
▁Crit	-3343
▁Arm	-3344
▁covered	-3345
▁purp	-3346
▁unable	-3347
irection	-3348
▁sched	-3349
▁heart	-3350
▁traditional	-3351
▁Cr	-3352
▁education	-3353
gr	-3354
▁trade	-3355
▁artist	-3356
▁newsp	-3357
ya	-3358
▁double	-3359
▁friends	-3360
▁closed	-3361
▁Viet	-3362
▁refused	-3363
▁underst	-3364
agon	-3365
▁aw	-3366
▁recover	-3367
▁attention	-3368
ounts	-3369
▁method	-3370
▁primary	-3371
ighter	-3372
ogue	-3373
▁sister	-3374
▁kind	-3375
▁talk	-3376
▁Michigan	-3377
▁Pre	-3378
tered	-3379
▁reason	-3380
ffic	-3381
▁officer	-3382
▁plat	-3383
▁below	-3384
▁contem	-3385
hips	-3386
▁Wales	-3387
▁enjoy	-3388
▁ability	-3389
▁depression	-3390
▁meant	-3391
▁Mass	-3392
▁performances	-3393
▁declared	-3394
oo	-3395
▁walk	-3396
▁Nort	-3397
▁blood	-3398
isher	-3399
▁More	-3400
▁giving	-3401
▁Cath	-3402
▁letter	-3403
▁compl	-3404
▁word	-3405
undred	-3406
ples	-3407
▁fighting	-3408
▁middle	-3409
▁Cle	-3410
▁commander	-3411
▁religious	-3412
▁books	-3413
▁theat	-3414
▁max	-3415
▁hot	-3416
▁sett	-3417
▁rate	-3418
▁Ox	-3419
▁Arch	-3420
▁Step	-3421
▁Long	-3422
▁records	-3423
ils	-3424
▁matches	-3425
▁constit	-3426
▁Acad	-3427
▁names	-3428
ona	-3429
aped	-3430
▁Bec	-3431
▁Test	-3432
▁Democr	-3433
▁produce	-3434
▁question	-3435
▁Fer	-3436
▁Care	-3437
antasy	-3438
▁competition	-3439
utch	-3440
▁centre	-3441
▁serious	-3442
▁unit	-3443
ux	-3444
▁Team	-3445
odies	-3446
▁disapp	-3447
▁touch	-3448
▁vocals	-3449
ims	-3450
▁Minister	-3451
irt	-3452
▁Several	-3453
▁Zeal	-3454
iences	-3455
▁mention	-3456
osh	-3457
ounded	-3458
▁ri	-3459
▁Major	-3460
ector	-3461
▁Cons	-3462
▁account	-3463
▁document	-3464
▁abandon	-3465
▁Wal	-3466
road	-3467
icted	-3468
▁rapid	-3469
▁energy	-3470
▁necess	-3471
ares	-3472
▁mor	-3473
quar	-3474
▁kilomet	-3475
▁Kenn	-3476
ervation	-3477
echan	-3478
▁Fore	-3479
▁dut	-3480
▁constructed	-3481
ening	-3482
▁theme	-3483
▁ris	-3484
rug	-3485
oses	-3486
rier	-3487
▁Fox	-3488
▁Sum	-3489
ette	-3490
▁Time	-3491
▁royal	-3492
ishop	-3493
▁pick	-3494
▁stra	-3495
▁nearby	-3496
▁highly	-3497
▁Zealand	-3498
▁separate	-3499
yr	-3500
▁Er	-3501
▁continue	-3502
vention	-3503
▁prep	-3504
▁So	-3505
▁chief	-3506
▁drum	-3507
ails	-3508
▁effort	-3509
▁cas	-3510
▁presented	-3511
edic	-3512
▁Haw	-3513
▁Sar	-3514
▁tur	-3515
▁combat	-3516
▁Mexico	-3517
oper	-3518
▁positions	-3519
▁African	-3520
▁reduced	-3521
▁annual	-3522
▁Bu	-3523
ether	-3524
ibly	-3525
▁controvers	-3526
▁Chris	-3527
▁Matt	-3528
▁directly	-3529
ieut	-3530
▁Ma	-3531
▁Four	-3532
▁levels	-3533
cel	-3534
▁means	-3535
▁cle	-3536
▁neigh	-3537
▁Wall	-3538
▁notes	-3539
▁attended	-3540
▁sevent	-3541
▁practice	-3542
▁tried	-3543
shire	-3544
▁compos	-3545
▁forest	-3546
uit	-3547
emorial	-3548
▁har	-3549
▁fast	-3550
▁nuc	-3551
▁edition	-3552
▁train	-3553
▁Lit	-3554
▁Brad	-3555
▁Dar	-3556
acher	-3557
ado	-3558
▁Chart	-3559
▁Tre	-3560
▁Bob	-3561
arents	-3562
▁twenty	-3563
vement	-3564
▁metal	-3565
▁Madonna	-3566
▁accepted	-3567
osen	-3568
▁watch	-3569
▁stating	-3570
▁movie	-3571
▁architect	-3572
▁text	-3573
rical	-3574
▁Hel	-3575
▁repe	-3576
▁candid	-3577
isation	-3578
track	-3579
▁concert	-3580
▁Scotland	-3581
▁advance	-3582
stitute	-3583
▁pair	-3584
▁Jones	-3585
▁portray	-3586
▁direction	-3587
▁fr	-3588
irmed	-3589
house	-3590
ersey	-3591
▁seem	-3592
▁dism	-3593
▁Their	-3594
▁schools	-3595
▁legal	-3596
▁Ann	-3597
ani	-3598
▁reject	-3599
eway	-3600
lict	-3601
inem	-3602
ih	-3603
wide	-3604
▁asp	-3605
▁Manc	-3606
icip	-3607
fall	-3608
▁ge	-3609
▁horse	-3610
▁Cross	-3611
▁thick	-3612
▁marriage	-3613
illery	-3614
▁+	-3615
aging	-3616
▁recomm	-3617
▁Greek	-3618
▁Department	-3619
light	-3620
▁efforts	-3621
▁college	-3622
▁managed	-3623
▁Dou	-3624
awn	-3625
▁purs	-3626
like	-3627
▁Go	-3628
icient	-3629
▁wing	-3630
utions	-3631
hy	-3632
▁resulting	-3633
▁ending	-3634
irit	-3635
ieutenant	-3636
▁Three	-3637
band	-3638
▁showed	-3639
▁dropped	-3640
▁responsible	-3641
▁Mic	-3642
▁Post	-3643
MS	-3644
▁Infantry	-3645
▁inside	-3646
▁nation	-3647
▁display	-3648
illed	-3649
▁Foot	-3650
ita	-3651
▁kept	-3652
▁cases	-3653
▁cust	-3654
▁environment	-3655
▁Lad	-3656
▁Bost	-3657
▁culture	-3658
▁rare	-3659
▁meaning	-3660
▁rat	-3661
▁Leg	-3662
▁cyclone	-3663
olf	-3664
▁dom	-3665
▁incorpor	-3666
▁begins	-3667
▁variety	-3668
ceeded	-3669
▁morning	-3670
▁subst	-3671
pe	-3672
▁cerem	-3673
pass	-3674
▁houses	-3675
▁Stone	-3676
▁forms	-3677
▁championship	-3678
▁Service	-3679
rane	-3680
▁words	-3681
▁arrest	-3682
▁schol	-3683
▁yard	-3684
▁Creek	-3685
peror	-3686
▁Williams	-3687
▁Hung	-3688
▁oil	-3689
▁Records	-3690
▁Secret	-3691
▁marked	-3692
▁inches	-3693
cend	-3694
▁continues	-3695
▁spl	-3696
ini	-3697
▁science	-3698
▁BC	-3699
▁perm	-3700
▁symb	-3701
gl	-3702
▁News	-3703
gypt	-3704
ecting	-3705
ols	-3706
▁bank	-3707
▁Hal	-3708
▁Stan	-3709
▁Parliament	-3710
▁uses	-3711
▁economic	-3712
▁Sur	-3713
writ	-3714
cle	-3715
▁source	-3716
▁Games	-3717
thel	-3718
bed	-3719
▁Fin	-3720
ras	-3721
▁Tro	-3722
▁quality	-3723
▁defend	-3724
▁Pan	-3725
▁Tri	-3726
ulations	-3727
▁lear	-3728
▁hundred	-3729
▁settle	-3730
▁impact	-3731
▁starting	-3732
▁conducted	-3733
▁Book	-3734
thur	-3735
▁specific	-3736
wh	-3737
▁strugg	-3738
▁allowing	-3739
▁Egypt	-3740
▁Society	-3741
▁beat	-3742
▁presence	-3743
▁Sol	-3744
▁amount	-3745
▁du	-3746
▁Jer	-3747
▁Oh	-3748
▁sides	-3749
▁viewers	-3750
▁captain	-3751
sych	-3752
een	-3753
▁dance	-3754
▁metres	-3755
ingu	-3756
▁chap	-3757
▁univers	-3758
▁suppl	-3759
▁Lu	-3760
▁exhib	-3761
▁rule	-3762
▁ple	-3763
▁Prince	-3764
▁Ver	-3765
▁Southern	-3766
▁Stephen	-3767
▁distinct	-3768
▁multiple	-3769
▁Georg	-3770
▁Sat	-3771
ding	-3772
▁transferred	-3773
▁potential	-3774
▁Committee	-3775
▁foreign	-3776
▁Latin	-3777
▁contrast	-3778
▁Oxford	-3779
▁peaked	-3780
inet	-3781
itiz	-3782
▁enemy	-3783
▁your	-3784
arian	-3785
▁Sil	-3786
▁becomes	-3787
▁traffic	-3788
▁mess	-3789
▁Spec	-3790
ping	-3791
▁owned	-3792
▁things	-3793
▁founded	-3794
▁greater	-3795
▁Joseph	-3796
▁Like	-3797
▁vocal	-3798
▁Admiral	-3799
▁opt	-3800
▁concluded	-3801
▁portion	-3802
very	-3803
▁castle	-3804
▁scoring	-3805
▁Camb	-3806
ider	-3807
▁respond	-3808
ym	-3809
▁stories	-3810
▁property	-3811
iance	-3812
▁attempts	-3813
▁Boston	-3814
▁encoun	-3815
rong	-3816
anes	-3817
▁relatively	-3818
kn	-3819
▁Tw	-3820
▁Chief	-3821
▁Manchester	-3822
▁primarily	-3823
▁demonst	-3824
▁Harrison	-3825
▁Jeff	-3826
▁financial	-3827
▁federal	-3828
ograp	-3829
▁Class	-3830
ressive	-3831
ellig	-3832
▁Form	-3833
▁Captain	-3834
▁Because	-3835
▁Before	-3836
▁actually	-3837
▁animals	-3838
▁Swed	-3839
▁observed	-3840
▁Hurricane	-3841
▁tourn	-3842
▁Win	-3843
▁lif	-3844
▁collection	-3845
▁Tim	-3846
▁opportun	-3847
fect	-3848
▁Vietn	-3849
▁Bat	-3850
▁titled	-3851
▁Den	-3852
▁featuring	-3853
istics	-3854
▁writers	-3855
▁write	-3856
▁Def	-3857
▁journal	-3858
eds	-3859
▁wa	-3860
▁Bridge	-3861
ees	-3862
▁Fred	-3863
▁strength	-3864
▁wor	-3865
umber	-3866
▁inch	-3867
▁mechan	-3868
▁weaken	-3869
▁situation	-3870
▁Ott	-3871
▁spot	-3872
▁paid	-3873
▁distance	-3874
▁premi	-3875
▁parents	-3876
▁Commission	-3877
▁independent	-3878
▁Battalion	-3879
▁figure	-3880
▁share	-3881
mas	-3882
rel	-3883
▁mel	-3884
▁actor	-3885
▁acting	-3886
▁companies	-3887
▁divided	-3888
▁Little	-3889
▁Paris	-3890
▁mind	-3891
stein	-3892
▁onto	-3893
▁Produ	-3894
astic	-3895
▁Luc	-3896
▁collabor	-3897
▁Life	-3898
▁Columb	-3899
▁Carl	-3900
▁target	-3901
anna	-3902
▁slightly	-3903
▁function	-3904
▁piece	-3905
▁Series	-3906
▁reform	-3907
▁Mod	-3908
▁selling	-3909
perial	-3910
▁Entertain	-3911
aud	-3912
ricket	-3913
▁powerful	-3914
▁Gra	-3915
▁torped	-3916
▁concent	-3917
chest	-3918
▁innings	-3919
▁rating	-3920
▁Max	-3921
thlet	-3922
oration	-3923
▁BBC	-3924
▁plays	-3925
istry	-3926
▁rough	-3927
▁lot	-3928
▁today	-3929
lam	-3930
▁broke	-3931
uge	-3932
▁cho	-3933
▁era	-3934
osaur	-3935
▁Pop	-3936
annel	-3937
▁Croat	-3938
▁actions	-3939
▁waters	-3940
▁ultimately	-3941
▁Os	-3942
▁Histor	-3943
▁trial	-3944
▁square	-3945
▁maximum	-3946
rown	-3947
ada	-3948
▁dise	-3949
▁tend	-3950
itan	-3951
▁pilot	-3952
load	-3953
▁bound	-3954
▁log	-3955
illa	-3956
▁interp	-3957
rupt	-3958
▁Academy	-3959
▁completely	-3960
▁blue	-3961
under	-3962
▁sought	-3963
oti	-3964
▁gar	-3965
mond	-3966
▁scale	-3967
mark	-3968
▁society	-3969
▁Line	-3970
▁ess	-3971
▁behav	-3972
▁hus	-3973
▁Museum	-3974
▁Saint	-3975
▁mainly	-3976
▁Sk	-3977
ota	-3978
alle	-3979
▁designated	-3980
za	-3981
▁Hor	-3982
omy	-3983
▁conver	-3984
▁officials	-3985
▁Van	-3986
▁struck	-3987
▁transl	-3988
cers	-3989
ylvan	-3990
▁policy	-3991
▁activity	-3992
▁combined	-3993
▁Way	-3994
▁say	-3995
▁influenced	-3996
▁wear	-3997
olved	-3998
▁corn	-3999
iano	-4000
▁search	-4001
AS	-4002
▁Entertainment	-4003
▁Arab	-4004
▁vess	-4005
▁Italy	-4006
ented	-4007
▁thous	-4008
▁calling	-4009
racted	-4010
▁alongside	-4011
▁northeast	-4012
▁seconds	-4013
▁batter	-4014
ala	-4015
▁Brigade	-4016
▁sout	-4017
▁Wind	-4018
orses	-4019
while	-4020
▁Americans	-4021
▁winter	-4022
▁Conf	-4023
▁sources	-4024
▁Lee	-4025
▁seg	-4026
▁background	-4027
phy	-4028
▁Ire	-4029
▁webs	-4030
aine	-4031
▁ice	-4032
▁news	-4033
udd	-4034
▁thir	-4035
▁Tod	-4036
▁theory	-4037
▁Alb	-4038
rative	-4039
▁recent	-4040
▁suc	-4041
TV	-4042
▁mem	-4043
▁crow	-4044
▁gained	-4045
▁nominated	-4046
▁platform	-4047
HL	-4048
onn	-4049
▁artists	-4050
adel	-4051
▁Regiment	-4052
▁widely	-4053
▁naval	-4054
quarters	-4055
▁systems	-4056
▁promoted	-4057
▁electric	-4058
▁confirmed	-4059
ube	-4060
▁Ireland	-4061
pson	-4062
▁reaching	-4063
▁proved	-4064
▁results	-4065
▁Avenue	-4066
▁passing	-4067
ibrary	-4068
▁Fleet	-4069
▁albums	-4070
▁Good	-4071
▁Ell	-4072
▁explained	-4073
▁subsequent	-4074
▁conflict	-4075
▁greatest	-4076
ero	-4077
▁wick	-4078
▁content	-4079
▁invasion	-4080
▁ir	-4081
▁sn	-4082
▁Aut	-4083
▁Ray	-4084
▁coming	-4085
▁charge	-4086
▁hero	-4087
▁peace	-4088
▁resist	-4089
▁sixth	-4090
hew	-4091
▁northwest	-4092
▁weather	-4093
oured	-4094
▁county	-4095
▁adj	-4096
▁Orig	-4097
▁shortly	-4098
grad	-4099
town	-4100
aga	-4101
▁Bus	-4102
▁versions	-4103
▁Sub	-4104
▁path	-4105
aling	-4106
▁serve	-4107
▁causing	-4108
▁says	-4109
▁sust	-4110
▁Lo	-4111
▁expressed	-4112
iced	-4113
▁reception	-4114
▁seek	-4115
▁Victoria	-4116
▁Sant	-4117
▁burn	-4118
itness	-4119
▁Catholic	-4120
▁residents	-4121
▁emot	-4122
bon	-4123
▁Norm	-4124
▁Charl	-4125
▁border	-4126
▁Tropical	-4127
▁Work	-4128
▁chem	-4129
▁soundtrack	-4130
ansion	-4131
▁Valley	-4132
▁cities	-4133
▁Add	-4134
ips	-4135
▁Mat	-4136
▁green	-4137
▁seasons	-4138
▁Nin	-4139
tation	-4140
ategory	-4141
▁appearances	-4142
▁sense	-4143
▁Di	-4144
▁Light	-4145
▁sexual	-4146
▁hospital	-4147
▁require	-4148
AA	-4149
infall	-4150
▁Middle	-4151
▁pun	-4152
▁physical	-4153
▁identified	-4154
▁older	-4155
ighth	-4156
▁hands	-4157
▁Live	-4158
arden	-4159
▁Dun	-4160
▁Ram	-4161
▁iron	-4162
▁Though	-4163
▁true	-4164
▁offer	-4165
▁tells	-4166
▁Liber	-4167
▁dedic	-4168
▁kg	-4169
▁Ry	-4170
unction	-4171
▁Commun	-4172
ysis	-4173
▁artillery	-4174
ancy	-4175
▁Show	-4176
▁represented	-4177
▁Top	-4178
▁weapons	-4179
▁Vol	-4180
▁extra	-4181
▁gas	-4182
▁Football	-4183
▁ahead	-4184
▁Through	-4185
eption	-4186
▁pal	-4187
aded	-4188
▁Men	-4189
ronic	-4190
ylvania	-4191
▁eas	-4192
▁Kar	-4193
▁Jul	-4194
▁heavily	-4195
▁Bey	-4196
▁Upon	-4197
▁Young	-4198
▁supp	-4199
abeth	-4200
▁Direct	-4201
▁Tay	-4202
itable	-4203
▁avoid	-4204
▁Dutch	-4205
lers	-4206
▁defense	-4207
▁challen	-4208
▁student	-4209
▁agg	-4210
▁Week	-4211
▁alone	-4212
▁image	-4213
▁spread	-4214
▁apparent	-4215
▁studies	-4216
▁officially	-4217
▁Eliz	-4218
▁husband	-4219
known	-4220
▁district	-4221
▁Ill	-4222
▁executive	-4223
▁bit	-4224
▁instit	-4225
▁Albert	-4226
▁Fre	-4227
bur	-4228
essions	-4229
▁debuted	-4230
▁wild	-4231
▁prominent	-4232
▁capture	-4233
▁pack	-4234
▁send	-4235
▁consisted	-4236
▁instrument	-4237
▁injury	-4238
▁fired	-4239
▁equipment	-4240
▁organization	-4241
▁Rog	-4242
ports	-4243
▁resc	-4244
▁stone	-4245
pool	-4246
▁pattern	-4247
▁Far	-4248
▁prepar	-4249
▁Bre	-4250
▁argued	-4251
▁Dam	-4252
▁aired	-4253
▁figures	-4254
▁Bond	-4255
urban	-4256
▁exped	-4257
▁surpris	-4258
▁growth	-4259
▁eth	-4260
▁pict	-4261
acity	-4262
▁Civil	-4263
▁Homer	-4264
▁bud	-4265
▁hun	-4266
▁couple	-4267
▁doing	-4268
▁graph	-4269
▁magn	-4270
▁returning	-4271
▁ring	-4272
▁contemporary	-4273
ushed	-4274
▁poet	-4275
▁cert	-4276
lines	-4277
rog	-4278
▁pan	-4279
▁weight	-4280
▁ox	-4281
▁laid	-4282
▁doub	-4283
▁habit	-4284
▁earth	-4285
▁leaders	-4286
▁step	-4287
▁floor	-4288
▁matter	-4289
▁Northern	-4290
▁affected	-4291
▁Gal	-4292
▁pieces	-4293
▁tun	-4294
appen	-4295
amber	-4296
▁propos	-4297
▁Storm	-4298
ias	-4299
▁maintained	-4300
inson	-4301
▁rang	-4302
▁occasion	-4303
▁shell	-4304
▁Hard	-4305
▁here	-4306
ifying	-4307
▁visited	-4308
▁maintain	-4309
ental	-4310
▁communic	-4311
▁Daniel	-4312
▁Ha	-4313
▁comes	-4314
▁speech	-4315
▁termin	-4316
▁criticized	-4317
emic	-4318
▁hyd	-4319
▁activities	-4320
stone	-4321
▁rain	-4322
rat	-4323
▁Jon	-4324
▁Carolina	-4325
ockey	-4326
▁exec	-4327
▁attract	-4328
acement	-4329
▁hall	-4330
ola	-4331
▁citiz	-4332
▁tournament	-4333
▁reign	-4334
▁emph	-4335
ocked	-4336
▁toward	-4337
▁singles	-4338
uls	-4339
▁drug	-4340
▁trees	-4341
eed	-4342
▁reference	-4343
ners	-4344
▁crowd	-4345
▁Scottish	-4346
▁Tem	-4347
▁senior	-4348
▁formation	-4349
elve	-4350
▁adapt	-4351
▁surre	-4352
▁Rom	-4353
▁Marsh	-4354
▁setting	-4355
▁medical	-4356
ivity	-4357
▁worldwide	-4358
▁System	-4359
▁territory	-4360
▁trying	-4361
▁Government	-4362
estic	-4363
▁Holly	-4364
uct	-4365
▁appl	-4366
▁stations	-4367
orne	-4368
ruit	-4369
▁dog	-4370
▁bul	-4371
▁negoti	-4372
▁birds	-4373
▁Writ	-4374
▁Fantasy	-4375
▁god	-4376
▁Ocean	-4377
gian	-4378
▁Operation	-4379
eller	-4380
▁doll	-4381
▁Background	-4382
▁Field	-4383
▁machine	-4384
▁fellow	-4385
▁murder	-4386
▁Governor	-4387
embly	-4388
▁Rod	-4389
▁claims	-4390
▁District	-4391
▁Home	-4392
▁cell	-4393
▁displ	-4394
▁Dev	-4395
▁historian	-4396
▁Guard	-4397
▁risk	-4398
▁rainfall	-4399
▁Che	-4400
omers	-4401
▁accident	-4402
▁Penns	-4403
▁fully	-4404
▁Colon	-4405
▁load	-4406
uled	-4407
▁value	-4408
▁therefore	-4409
ote	-4410
▁split	-4411
bit	-4412
resh	-4413
▁Duke	-4414
▁chosen	-4415
▁treatment	-4416
▁university	-4417
▁guest	-4418
▁Short	-4419
velopment	-4420
rael	-4421
▁sens	-4422
▁twice	-4423
▁Studios	-4424
▁frequently	-4425
▁Girl	-4426
▁supply	-4427
agn	-4428
▁Polish	-4429
▁Lew	-4430
▁reports	-4431
ordin	-4432
stitution	-4433
▁leaves	-4434
▁Beat	-4435
▁governor	-4436
ayer	-4437
illy	-4438
▁paper	-4439
gu	-4440
▁ut	-4441
▁Senate	-4442
▁remark	-4443
aly	-4444
▁dyn	-4445
ampion	-4446
ledge	-4447
▁label	-4448
▁Eastern	-4449
izes	-4450
▁faced	-4451
azz	-4452
▁MD	-4453
▁opin	-4454
▁walls	-4455
▁follows	-4456
▁Corn	-4457
▁billion	-4458
▁operated	-4459
▁Bart	-4460
▁grew	-4461
antine	-4462
▁Ros	-4463
ufact	-4464
▁surrounding	-4465
▁planet	-4466
▁Mean	-4467
min	-4468
▁swe	-4469
rect	-4470
▁Andrew	-4471
antly	-4472
orter	-4473
▁contained	-4474
gend	-4475
onents	-4476
▁condition	-4477
resp	-4478
▁degree	-4479
▁bal	-4480
▁herself	-4481
▁horses	-4482
▁manufact	-4483
▁Christmas	-4484
▁Night	-4485
ety	-4486
▁color	-4487
isco	-4488
▁Jud	-4489
▁sle	-4490
▁accompan	-4491
rance	-4492
▁wounded	-4493
▁typically	-4494
▁escape	-4495
▁Allied	-4496
▁passes	-4497
▁unf	-4498
▁master	-4499
▁simply	-4500
▁Wilson	-4501
▁brown	-4502
▁fuel	-4503
isters	-4504
▁reinf	-4505
utation	-4506
▁railway	-4507
▁Inst	-4508
▁element	-4509
▁draft	-4510
▁dang	-4511
▁Taylor	-4512
aming	-4513
▁editor	-4514
▁lives	-4515
la	-4516
▁orders	-4517
▁arms	-4518
▁Elizabeth	-4519
▁phil	-4520
mit	-4521
fully	-4522
more	-4523
▁serving	-4524
ographer	-4525
▁nothing	-4526
▁Hum	-4527
▁camer	-4528
▁Alexander	-4529
uous	-4530
▁authority	-4531
▁chose	-4532
▁Mike	-4533
▁opposed	-4534
▁vote	-4535
▁moment	-4536
▁workers	-4537
▁Gi	-4538
▁cannot	-4539
▁consecutive	-4540
ricult	-4541
▁Pen	-4542
▁Each	-4543
▁newly	-4544
▁Joe	-4545
tar	-4546
▁Of	-4547
▁Jac	-4548
▁native	-4549
▁fan	-4550
▁experiment	-4551
ucky	-4552
▁unknown	-4553
isf	-4554
▁participated	-4555
ager	-4556
▁growing	-4557
rich	-4558
▁Pers	-4559
▁website	-4560
▁casual	-4561
▁emphas	-4562
▁psych	-4563
▁attrib	-4564
ancing	-4565
▁Det	-4566
▁producers	-4567
▁bass	-4568
ef	-4569
▁newspaper	-4570
▁fair	-4571
▁Castle	-4572
▁benef	-4573
▁losing	-4574
▁Exp	-4575
▁Land	-4576
▁adopted	-4577
▁Festival	-4578
▁advanced	-4579
ilies	-4580
▁filming	-4581
imens	-4582
▁Sound	-4583
▁heard	-4584
▁feed	-4585
▁spirit	-4586
▁severe	-4587
▁Pennsylvania	-4588
pton	-4589
▁offensive	-4590
▁firm	-4591
▁opposition	-4592
then	-4593
▁fiction	-4594
ype	-4595
▁Ret	-4596
▁extend	-4597
▁What	-4598
▁guard	-4599
▁Wat	-4600
▁capacity	-4601
▁rom	-4602
▁Head	-4603
orship	-4604
▁basis	-4605
▁Islands	-4606
▁council	-4607
▁sequence	-4608
▁actors	-4609
▁WW	-4610
▁Card	-4611
zy	-4612
▁ends	-4613
▁ast	-4614
▁Reception	-4615
▁Hy	-4616
TC	-4617
anda	-4618
▁weak	-4619
▁squadron	-4620
uses	-4621
▁Blue	-4622
▁Gall	-4623
▁prin	-4624
▁advant	-4625
▁compar	-4626
▁rear	-4627
▁abandoned	-4628
ura	-4629
aven	-4630
▁Irish	-4631
▁Further	-4632
▁rival	-4633
isers	-4634
▁Tech	-4635
▁SS	-4636
ables	-4637
iated	-4638
▁prompt	-4639
▁Bab	-4640
▁kick	-4641
▁honor	-4642
▁flying	-4643
lement	-4644
▁elev	-4645
▁enter	-4646
▁coal	-4647
▁bey	-4648
▁creating	-4649
ocated	-4650
▁Fam	-4651
▁Jersey	-4652
onc	-4653
▁Spain	-4654
▁launch	-4655
▁filmed	-4656
▁Harry	-4657
▁poll	-4658
BA	-4659
▁regarded	-4660
▁happen	-4661
▁normal	-4662
▁expansion	-4663
▁criticism	-4664
▁individuals	-4665
▁homes	-4666
▁Cat	-4667
▁beyond	-4668
▁agreement	-4669
eld	-4670
ounger	-4671
▁Us	-4672
▁incident	-4673
▁spect	-4674
FA	-4675
▁spring	-4676
▁delay	-4677
▁Square	-4678
▁failure	-4679
apers	-4680
▁Ca	-4681
▁Coast	-4682
▁liber	-4683
▁evac	-4684
▁deploy	-4685
▁eye	-4686
▁dismiss	-4687
▁chair	-4688
▁sports	-4689
▁Lind	-4690
▁famous	-4691
iner	-4692
▁inte	-4693
▁vo	-4694
▁sail	-4695
▁Fe	-4696
▁measure	-4697
▁Are	-4698
▁Sand	-4699
▁possibly	-4700
▁boat	-4701
imet	-4702
▁negative	-4703
▁historical	-4704
▁CD	-4705
▁bodies	-4706
ima	-4707
▁Ul	-4708
▁achieved	-4709
▁mob	-4710
▁contact	-4711
▁Bul	-4712
▁Wild	-4713
▁progress	-4714
▁silver	-4715
▁strike	-4716
ifications	-4717
▁believe	-4718
ico	-4719
▁Mul	-4720
▁Public	-4721
▁End	-4722
▁Elect	-4723
▁Broad	-4724
▁roles	-4725
iny	-4726
▁Production	-4727
▁narrow	-4728
▁ur	-4729
▁Cy	-4730
▁killing	-4731
▁Ven	-4732
▁retired	-4733
▁ideas	-4734
▁Institute	-4735
▁Ly	-4736
▁Israel	-4737
ienced	-4738
▁drive	-4739
onent	-4740
▁disease	-4741
mosp	-4742
iana	-4743
hol	-4744
▁pet	-4745
▁torpedo	-4746
war	-4747
▁imag	-4748
▁briefly	-4749
kins	-4750
▁diam	-4751
▁Arthur	-4752
▁Liver	-4753
▁Revolution	-4754
imal	-4755
▁Due	-4756
▁task	-4757
▁effective	-4758
▁tree	-4759
▁armed	-4760
▁applic	-4761
▁arrang	-4762
edom	-4763
▁Ash	-4764
▁tower	-4765
▁Cub	-4766
▁budget	-4767
▁perman	-4768
▁receive	-4769
▁repeated	-4770
▁granted	-4771
▁necessary	-4772
▁administration	-4773
▁roads	-4774
▁personnel	-4775
▁Sund	-4776
ocks	-4777
▁rejected	-4778
▁Meanwhile	-4779
enger	-4780
▁table	-4781
▁Person	-4782
▁Republican	-4783
▁twelve	-4784
▁Clark	-4785
▁kilometres	-4786
▁inh	-4787
▁Doctor	-4788
▁gross	-4789
▁improved	-4790
▁leadership	-4791
kes	-4792
▁Album	-4793
▁column	-4794
worth	-4795
▁interchange	-4796
avalry	-4797
▁yellow	-4798
▁extensive	-4799
aved	-4800
▁data	-4801
▁Mir	-4802
▁Ohio	-4803
▁Ty	-4804
iments	-4805
ourney	-4806
▁straight	-4807
▁turns	-4808
▁lands	-4809
▁plants	-4810
▁infantry	-4811
▁purpose	-4812
zil	-4813
▁paralle	-4814
▁Les	-4815
▁management	-4816
▁Bell	-4817
▁express	-4818
▁Board	-4819
▁defin	-4820
ić	-4821
▁seat	-4822
▁landing	-4823
och	-4824
oln	-4825
▁describes	-4826
▁expanded	-4827
▁Secretary	-4828
▁solo	-4829
oma	-4830
▁franch	-4831
▁choice	-4832
▁successfully	-4833
▁mile	-4834
lusion	-4835
adelph	-4836
▁broken	-4837
▁learn	-4838
set	-4839
▁tru	-4840
▁crossing	-4841
▁didn	-4842
▁intellig	-4843
▁animal	-4844
uate	-4845
▁deliver	-4846
▁Ep	-4847
▁Sa	-4848
▁explos	-4849
▁Philadelph	-4850
▁fought	-4851
gers	-4852
▁chor	-4853
▁Prot	-4854
▁excl	-4855
▁Bru	-4856
▁RA	-4857
▁organized	-4858
▁caught	-4859
erc	-4860
▁vehicles	-4861
▁commissioned	-4862
▁suggests	-4863
▁Burn	-4864
▁roof	-4865
▁glob	-4866
▁Even	-4867
▁acquired	-4868
haps	-4869
stream	-4870
etball	-4871
▁places	-4872
▁committee	-4873
rif	-4874
▁Never	-4875
▁ancient	-4876
ev	-4877
▁drama	-4878
▁IS	-4879
▁Hit	-4880
▁Georgia	-4881
▁creation	-4882
▁Mov	-4883
▁Sher	-4884
▁Cambridge	-4885
▁types	-4886
▁fat	-4887
appy	-4888
▁Lar	-4889
▁gives	-4890
▁Philadelphia	-4891
▁article	-4892
▁comedy	-4893
▁seventh	-4894
▁prefer	-4895
▁nuclear	-4896
akers	-4897
▁soft	-4898
zer	-4899
▁unsu	-4900
▁wave	-4901
ms	-4902
ii	-4903
aith	-4904
etts	-4905
▁SR	-4906
▁authorities	-4907
▁contain	-4908
▁headquarters	-4909
▁Rel	-4910
▁Also	-4911
▁commonly	-4912
▁centuries	-4913
▁determined	-4914
rin	-4915
▁genus	-4916
▁islands	-4917
ns	-4918
▁roll	-4919
▁Addition	-4920
▁mentioned	-4921
attle	-4922
▁Russia	-4923
▁Mah	-4924
▁bott	-4925
▁recently	-4926
▁trav	-4927
▁street	-4928
oted	-4929
umes	-4930
▁Wars	-4931
▁beaut	-4932
▁encoura	-4933
▁looking	-4934
▁Gil	-4935
▁controlled	-4936
amin	-4937
▁favour	-4938
ipl	-4939
restling	-4940
uan	-4941
▁Common	-4942
arts	-4943
oles	-4944
▁Arg	-4945
▁sets	-4946
▁families	-4947
▁Among	-4948
▁household	-4949
▁security	-4950
▁Liverpool	-4951
▁aim	-4952
▁finds	-4953
▁advert	-4954
▁sand	-4955
▁decre	-4956
▁Nintend	-4957
▁drop	-4958
▁suppor	-4959
▁acad	-4960
▁standing	-4961
va	-4962
▁la	-4963
▁illust	-4964
ishes	-4965
▁Linc	-4966
▁unp	-4967
uting	-4968
▁Nintendo	-4969
outs	-4970
gn	-4971
▁Chap	-4972
▁singing	-4973
▁withdraw	-4974
▁Ka	-4975
▁Earl	-4976
▁fish	-4977
▁Hay	-4978
▁dial	-4979
▁ven	-4980
▁battalion	-4981
▁reflect	-4982
▁Jenn	-4983
▁Prime	-4984
▁Columbia	-4985
▁Bad	-4986
▁sac	-4987
▁unique	-4988
itled	-4989
▁deck	-4990
▁height	-4991
▁cultural	-4992
▁containing	-4993
▁entirely	-4994
▁orchest	-4995
▁protect	-4996
water	-4997
▁finish	-4998
▁Lincoln	-4999
oh	-5000
▁touchdown	-5001
▁mist	-5002
▁Singap	-5003
illing	-5004
▁contributed	-5005
▁Asia	-5006
▁try	-5007
▁themes	-5008
▁Korean	-5009
▁Development	-5010
▁younger	-5011
▁provides	-5012
▁defence	-5013
▁flooding	-5014
▁Lieutenant	-5015
▁Brazil	-5016
pping	-5017
▁atmosp	-5018
▁Child	-5019
room	-5020
▁awards	-5021
▁titles	-5022
▁mis	-5023
ulate	-5024
▁purchased	-5025
▁Jewish	-5026
▁powers	-5027
inity	-5028
▁arrival	-5029
▁Hun	-5030
▁convers	-5031
▁scheduled	-5032
▁Francisco	-5033
▁defensive	-5034
respond	-5035
▁resemb	-5036
▁Rol	-5037
▁Singapore	-5038
▁thing	-5039
▁accompanied	-5040
wall	-5041
▁ceremony	-5042
icial	-5043
▁unus	-5044
▁quite	-5045
▁perfect	-5046
▁expedition	-5047
▁People	-5048
▁Six	-5049
▁worth	-5050
wick	-5051
atures	-5052
▁existing	-5053
▁locations	-5054
▁Dark	-5055
▁Hon	-5056
▁interact	-5057
▁advantage	-5058
▁performing	-5059
▁Pot	-5060
▁Carey	-5061
▁philos	-5062
▁Office	-5063
rons	-5064
▁dedicated	-5065
▁computer	-5066
▁Lis	-5067
▁bat	-5068
acted	-5069
ker	-5070
▁Bor	-5071
▁Disney	-5072
▁extrem	-5073
▁request	-5074
laim	-5075
▁intensity	-5076
▁Key	-5077
▁Tam	-5078
Station	-5079
▁store	-5080
▁occupied	-5081
dy	-5082
agan	-5083
▁why	-5084
▁squad	-5085
▁PlayStation	-5086
▁fresh	-5087
▁HMS	-5088
▁carry	-5089
▁mounted	-5090
iling	-5091
▁Order	-5092
usc	-5093
▁Kel	-5094
ashion	-5095
▁nob	-5096
▁Turn	-5097
ta	-5098
▁fix	-5099
▁tail	-5100
▁mouth	-5101
▁Anderson	-5102
▁Brook	-5103
▁Balt	-5104
▁mic	-5105
▁cricket	-5106
fort	-5107
▁Mot	-5108
▁Steve	-5109
▁closely	-5110
rations	-5111
▁consists	-5112
▁Lewis	-5113
▁currently	-5114
mann	-5115
▁Miller	-5116
▁lic	-5117
▁session	-5118
hens	-5119
▁Byz	-5120
▁Radio	-5121
▁Die	-5122
▁Conference	-5123
yles	-5124
▁tim	-5125
▁industrial	-5126
▁Bas	-5127
▁egg	-5128
mouth	-5129
▁simple	-5130
ava	-5131
▁elimin	-5132
pper	-5133
▁vari	-5134
▁piano	-5135
▁Once	-5136
▁facilities	-5137
ilton	-5138
▁cold	-5139
▁supporting	-5140
▁drawn	-5141
▁Grant	-5142
▁Olympic	-5143
▁ty	-5144
ware	-5145
▁trains	-5146
▁Conn	-5147
▁belong	-5148
▁Pu	-5149
▁Shak	-5150
▁protection	-5151
▁boats	-5152
▁Brian	-5153
▁rated	-5154
▁rise	-5155
▁defined	-5156
▁selection	-5157
▁steam	-5158
▁row	-5159
▁harm	-5160
otic	-5161
▁regions	-5162
awa	-5163
iro	-5164
▁Su	-5165
▁Barb	-5166
▁submar	-5167
▁Railway	-5168
▁protected	-5169
▁calls	-5170
▁pros	-5171
▁NHL	-5172
▁hair	-5173
▁comic	-5174
▁motion	-5175
▁Emperor	-5176
gest	-5177
verse	-5178
▁structures	-5179
▁throw	-5180
▁lap	-5181
▁aid	-5182
▁Att	-5183
▁shark	-5184
▁labor	-5185
▁focused	-5186
▁opportunity	-5187
▁engaged	-5188
▁receiving	-5189
ingly	-5190
iration	-5191
▁correspond	-5192
▁Mu	-5193
▁analysis	-5194
▁shooting	-5195
▁sport	-5196
▁citizens	-5197
▁motor	-5198
ba	-5199
▁observ	-5200
▁strengthen	-5201
▁Gulf	-5202
osa	-5203
▁notable	-5204
sey	-5205
▁adap	-5206
▁Av	-5207
▁Jr	-5208
▁Summer	-5209
uzz	-5210
▁Press	-5211
▁Water	-5212
▁experienced	-5213
▁Germans	-5214
▁Hollywood	-5215
ults	-5216
▁Serb	-5217
ua	-5218
▁holding	-5219
▁providing	-5220
▁conference	-5221
▁Walter	-5222
▁Inc	-5223
inger	-5224
▁visual	-5225
▁mountain	-5226
▁eyes	-5227
▁Han	-5228
▁Only	-5229
▁resident	-5230
olid	-5231
▁Davis	-5232
ading	-5233
▁southeast	-5234
▁Lab	-5235
▁mut	-5236
▁hired	-5237
▁charts	-5238
unior	-5239
▁viewed	-5240
FL	-5241
▁merch	-5242
▁branch	-5243
heim	-5244
ifically	-5245
inth	-5246
▁rapidly	-5247
burgh	-5248
▁recognized	-5249
▁rob	-5250
iler	-5251
▁Gib	-5252
▁volume	-5253
▁vac	-5254
opher	-5255
▁transform	-5256
▁alle	-5257
▁Democratic	-5258
▁Review	-5259
▁prote	-5260
▁scholars	-5261
▁sites	-5262
essed	-5263
▁gain	-5264
▁Special	-5265
▁casualties	-5266
▁teach	-5267
▁hyp	-5268
▁shared	-5269
▁concer	-5270
▁parallel	-5271
▁UN	-5272
▁Jean	-5273
▁Between	-5274
▁publication	-5275
▁Down	-5276
▁cart	-5277
▁digital	-5278
▁temperature	-5279
▁Fall	-5280
▁moder	-5281
▁economy	-5282
▁Rome	-5283
▁Kir	-5284
▁Bank	-5285
▁developing	-5286
▁steel	-5287
▁reaction	-5288
▁edge	-5289
box	-5290
friend	-5291
standing	-5292
▁cool	-5293
roll	-5294
▁Princ	-5295
▁symbol	-5296
▁intersection	-5297
ali	-5298
zen	-5299
▁Lady	-5300
yer	-5301
oncé	-5302
▁approved	-5303
▁secondary	-5304
▁chance	-5305
▁Nap	-5306
▁Prov	-5307
▁Ob	-5308
▁Gord	-5309
▁von	-5310
▁hydro	-5311
omew	-5312
▁losses	-5313
▁myth	-5314
▁contest	-5315
rant	-5316
▁rac	-5317
rence	-5318
▁prepared	-5319
▁substant	-5320
▁Mas	-5321
▁belief	-5322
itors	-5323
▁Daily	-5324
▁Ten	-5325
▁enl	-5326
▁Musl	-5327
iful	-5328
▁letters	-5329
án	-5330
ologist	-5331
ographic	-5332
▁Women	-5333
▁significantly	-5334
▁witness	-5335
▁bands	-5336
▁sort	-5337
onder	-5338
▁card	-5339
▁save	-5340
▁Naz	-5341
▁domestic	-5342
▁Syd	-5343
▁franchise	-5344
▁knew	-5345
ryst	-5346
▁goes	-5347
▁Beyoncé	-5348
▁literature	-5349
eral	-5350
▁unsuccess	-5351
▁instruct	-5352
▁heads	-5353
achus	-5354
▁southwest	-5355
▁semi	-5356
▁actress	-5357
▁technology	-5358
▁advent	-5359
break	-5360
▁descend	-5361
▁roughly	-5362
ora	-5363
range	-5364
▁urban	-5365
asty	-5366
▁cab	-5367
▁Command	-5368
▁Bern	-5369
aka	-5370
unte	-5371
▁Plan	-5372
theless	-5373
▁painting	-5374
▁adult	-5375
▁lb	-5376
▁Main	-5377
▁anything	-5378
▁cars	-5379
▁pitch	-5380
▁projects	-5381
enc	-5382
▁Indust	-5383
▁Colonel	-5384
▁assault	-5385
ella	-5386
▁exact	-5387
▁brothers	-5388
ients	-5389
▁resistance	-5390
▁gameplay	-5391
▁Point	-5392
▁core	-5393
▁Nick	-5394
▁shape	-5395
▁storyline	-5396
▁Whit	-5397
▁Supreme	-5398
▁Fair	-5399
▁rules	-5400
▁reasons	-5401
iminal	-5402
▁ign	-5403
▁employed	-5404
▁IV	-5405
ropri	-5406
▁tank	-5407
▁Var	-5408
▁Kentucky	-5409
▁daily	-5410
▁Station	-5411
▁shall	-5412
▁injured	-5413
▁Spring	-5414
▁watched	-5415
ati	-5416
▁agent	-5417
onym	-5418
▁popularity	-5419
▁composition	-5420
ira	-5421
▁Cur	-5422
▁perhaps	-5423
▁fit	-5424
▁isol	-5425
▁adding	-5426
▁enjoyed	-5427
▁opinion	-5428
▁renamed	-5429
▁getting	-5430
▁Independ	-5431
omic	-5432
▁calc	-5433
▁declined	-5434
oz	-5435
▁Norway	-5436
agement	-5437
▁Ross	-5438
▁compris	-5439
▁reputation	-5440
▁lov	-5441
osl	-5442
▁nor	-5443
inking	-5444
▁Theat	-5445
▁Prem	-5446
▁estate	-5447
▁shaped	-5448
▁connected	-5449
▁undert	-5450
▁rend	-5451
▁retire	-5452
▁drew	-5453
▁museum	-5454
▁poem	-5455
▁regarding	-5456
bound	-5457
▁Olympics	-5458
▁views	-5459
oir	-5460
ulpt	-5461
▁Mos	-5462
▁stages	-5463
▁Philipp	-5464
▁converted	-5465
▁dry	-5466
ceived	-5467
amm	-5468
▁Golden	-5469
▁Massachus	-5470
gal	-5471
iform	-5472
▁Walk	-5473
han	-5474
▁Base	-5475
▁agricult	-5476
▁allows	-5477
▁Sel	-5478
▁sun	-5479
ads	-5480
▁distingu	-5481
▁nick	-5482
▁alternative	-5483
▁Massachusetts	-5484
▁Ball	-5485
vest	-5486
▁Abb	-5487
rets	-5488
▁Imp	-5489
▁bed	-5490
▁headed	-5491
igg	-5492
▁journey	-5493
▁Sus	-5494
athan	-5495
▁Dream	-5496
▁depth	-5497
ules	-5498
▁missing	-5499
▁cited	-5500
ato	-5501
▁increasingly	-5502
ko	-5503
eper	-5504
▁Let	-5505
osis	-5506
▁Ron	-5507
▁stadium	-5508
▁approached	-5509
▁Airport	-5510
▁turning	-5511
▁Hart	-5512
▁responded	-5513
▁planning	-5514
▁knowledge	-5515
▁Vi	-5516
▁exerc	-5517
▁easily	-5518
▁wealth	-5519
▁overl	-5520
▁cells	-5521
ilding	-5522
▁fashion	-5523
▁equal	-5524
▁escort	-5525
olt	-5526
▁flu	-5527
▁About	-5528
▁collected	-5529
▁succeeded	-5530
psons	-5531
▁constitution	-5532
mod	-5533
eman	-5534
▁Ken	-5535
▁safety	-5536
▁Bal	-5537
▁rebu	-5538
▁existence	-5539
unicip	-5540
▁trip	-5541
▁Run	-5542
▁pul	-5543
wise	-5544
ignment	-5545
▁Simpsons	-5546
▁introduction	-5547
▁auth	-5548
▁occas	-5549
▁models	-5550
▁learned	-5551
▁Init	-5552
▁colle	-5553
▁sustained	-5554
rett	-5555
hi	-5556
▁tall	-5557
▁promotion	-5558
▁operating	-5559
uration	-5560
mitted	-5561
▁McG	-5562
▁baseball	-5563
▁carrying	-5564
▁Songs	-5565
▁limit	-5566
▁exchange	-5567
▁showing	-5568
iger	-5569
▁youth	-5570
onia	-5571
▁buried	-5572
▁Imperial	-5573
engers	-5574
▁Vietnam	-5575
▁humans	-5576
eg	-5577
▁credited	-5578
come	-5579
▁depend	-5580
leton	-5581
▁Ottoman	-5582
▁arranged	-5583
▁Loc	-5584
▁improve	-5585
▁impl	-5586
▁seems	-5587
▁Jay	-5588
▁weakened	-5589
▁Cape	-5590
▁designs	-5591
▁van	-5592
inary	-5593
▁joint	-5594
▁Shortly	-5595
▁paint	-5596
▁rhy	-5597
istan	-5598
state	-5599
▁athlet	-5600
▁producing	-5601
▁Poland	-5602
▁proceed	-5603
acts	-5604
eler	-5605
▁shel	-5606
▁Sydney	-5607
▁Moore	-5608
▁freeway	-5609
oli	-5610
▁earliest	-5611
▁Who	-5612
▁flat	-5613
▁lasted	-5614
▁Maryland	-5615
▁landfall	-5616
▁settlement	-5617
put	-5618
▁Pict	-5619
▁note	-5620
▁Roy	-5621
▁description	-5622
▁retained	-5623
▁acres	-5624
▁Stew	-5625
▁brand	-5626
▁ton	-5627
▁Rem	-5628
▁Naval	-5629
▁MTV	-5630
▁AD	-5631
▁laws	-5632
▁appoint	-5633
▁Cra	-5634
ivalent	-5635
▁genre	-5636
▁programs	-5637
▁consc	-5638
ources	-5639
▁assistant	-5640
rell	-5641
▁playoff	-5642
▁Jes	-5643
ivered	-5644
▁replace	-5645
ader	-5646
▁install	-5647
bell	-5648
issance	-5649
▁reserve	-5650
▁statement	-5651
▁virt	-5652
▁applied	-5653
▁catch	-5654
▁trust	-5655
▁violence	-5656
▁neut	-5657
▁scientific	-5658
insula	-5659
▁Arts	-5660
▁coastal	-5661
▁entrance	-5662
othes	-5663
▁Pass	-5664
▁tick	-5665
iege	-5666
▁hits	-5667
tical	-5668
▁consequ	-5669
avig	-5670
▁exclus	-5671
▁synt	-5672
▁Greg	-5673
▁sculpt	-5674
▁patrol	-5675
▁battery	-5676
math	-5677
▁Fire	-5678
▁items	-5679
▁Ari	-5680
▁candidate	-5681
▁towns	-5682
lee	-5683
▁Bowl	-5684
▁indicated	-5685
▁uns	-5686
▁gradually	-5687
▁distribution	-5688
time	-5689
▁Edu	-5690
▁politics	-5691
lan	-5692
▁Rid	-5693
▁delivered	-5694
oard	-5695
▁stopped	-5696
▁filled	-5697
▁ban	-5698
▁independence	-5699
▁tact	-5700
izations	-5701
eke	-5702
▁details	-5703
▁sections	-5704
pet	-5705
▁Jan	-5706
▁IG	-5707
▁Confeder	-5708
▁Mulder	-5709
eless	-5710
▁cinem	-5711
▁select	-5712
▁combination	-5713
mun	-5714
▁emp	-5715
▁supplies	-5716
▁ways	-5717
▁glass	-5718
ender	-5719
▁parties	-5720
▁stream	-5721
▁engines	-5722
ushing	-5723
▁Gordon	-5724
▁camera	-5725
▁prisoners	-5726
▁appeal	-5727
▁Stadium	-5728
▁AC	-5729
▁Band	-5730
▁Rhodes	-5731
▁register	-5732
▁bask	-5733
▁campus	-5734
emies	-5735
▁Well	-5736
▁acts	-5737
▁mig	-5738
▁Bon	-5739
▁extremely	-5740
▁entitled	-5741
▁secure	-5742
reets	-5743
rec	-5744
ela	-5745
▁Ra	-5746
▁finding	-5747
AT	-5748
▁decade	-5749
▁online	-5750
inois	-5751
▁Univers	-5752
▁tal	-5753
▁Prof	-5754
poration	-5755
iques	-5756
▁Theatre	-5757
acter	-5758
▁winner	-5759
▁Staff	-5760
iversary	-5761
▁arc	-5762
ropol	-5763
▁evening	-5764
▁Cop	-5765
▁regiment	-5766
▁Kim	-5767
▁investigation	-5768
▁threatened	-5769
▁bought	-5770
▁message	-5771
▁adapted	-5772
ja	-5773
▁somew	-5774
▁survived	-5775
▁knots	-5776
▁consum	-5777
▁studied	-5778
▁Bir	-5779
▁Anth	-5780
▁proposal	-5781
ador	-5782
▁writes	-5783
▁address	-5784
ashed	-5785
▁Vill	-5786
▁deaths	-5787
▁Justice	-5788
iat	-5789
▁routes	-5790
▁wars	-5791
▁ruled	-5792
▁download	-5793
▁Nic	-5794
▁fear	-5795
▁Instead	-5796
▁relief	-5797
▁religion	-5798
▁males	-5799
▁reduce	-5800
▁voted	-5801
BS	-5802
ieval	-5803
ighters	-5804
ano	-5805
▁revolution	-5806
▁specifically	-5807
▁spons	-5808
▁crown	-5809
▁phase	-5810
met	-5811
▁duty	-5812
phoon	-5813
▁fict	-5814
▁kingdom	-5815
▁Age	-5816
bourne	-5817
▁recalled	-5818
▁ec	-5819
▁portrayed	-5820
▁soul	-5821
▁implement	-5822
ctions	-5823
▁Circ	-5824
▁controversy	-5825
▁emerg	-5826
▁Here	-5827
▁Memorial	-5828
hat	-5829
▁causes	-5830
BN	-5831
▁Ast	-5832
ervative	-5833
▁et	-5834
▁ble	-5835
▁breeding	-5836
▁everything	-5837
apes	-5838
adow	-5839
chers	-5840
aug	-5841
▁sell	-5842
▁stret	-5843
▁references	-5844
ician	-5845
▁bottom	-5846
▁ago	-5847
▁capable	-5848
▁Tony	-5849
▁convin	-5850
▁teacher	-5851
▁importance	-5852
▁Po	-5853
▁Coll	-5854
▁entry	-5855
▁McK	-5856
▁meters	-5857
▁offers	-5858
▁Singles	-5859
▁Id	-5860
▁Nel	-5861
▁Kong	-5862
▁Od	-5863
senal	-5864
▁tanks	-5865
▁Power	-5866
bro	-5867
▁Ur	-5868
▁sufficient	-5869
▁Director	-5870
▁owner	-5871
entially	-5872
▁internal	-5873
▁arrested	-5874
▁opera	-5875
ridges	-5876
▁Adams	-5877
▁admitted	-5878
▁nomination	-5879
arp	-5880
▁Ok	-5881
▁corner	-5882
▁bor	-5883
▁Jord	-5884
▁Moon	-5885
▁copy	-5886
▁Alan	-5887
▁FA	-5888
▁crossed	-5889
▁climb	-5890
▁products	-5891
▁Dougl	-5892
wich	-5893
uro	-5894
▁Critical	-5895
bar	-5896
▁equipped	-5897
▁installed	-5898
▁Beach	-5899
▁Alf	-5900
▁IGN	-5901
▁preced	-5902
▁concerns	-5903
aki	-5904
▁mort	-5905
▁overse	-5906
▁autom	-5907
▁Hamilton	-5908
▁Simon	-5909
▁invited	-5910
▁Maria	-5911
▁Engine	-5912
▁convoy	-5913
▁ones	-5914
▁conqu	-5915
▁interested	-5916
▁starts	-5917
▁fly	-5918
▁Adam	-5919
▁crime	-5920
▁principal	-5921
▁Gram	-5922
hr	-5923
▁acid	-5924
ranean	-5925
▁Your	-5926
▁tell	-5927
▁recommended	-5928
andy	-5929
▁alt	-5930
▁unl	-5931
▁Jane	-5932
ructure	-5933
▁Plot	-5934
▁remainder	-5935
▁medal	-5936
ansas	-5937
▁shut	-5938
▁actual	-5939
ca	-5940
▁snow	-5941
▁retreat	-5942
▁UTC	-5943
▁stock	-5944
▁vent	-5945
▁upgrad	-5946
espread	-5947
▁charged	-5948
▁VII	-5949
▁apart	-5950
▁solid	-5951
▁Bos	-5952
▁funds	-5953
▁price	-5954
▁objects	-5955
▁Cart	-5956
▁door	-5957
▁Track	-5958
osaurus	-5959
▁Forest	-5960
ilation	-5961
▁composer	-5962
vis	-5963
▁females	-5964
▁Video	-5965
▁consisting	-5966
▁gall	-5967
aked	-5968
▁promote	-5969
▁Death	-5970
▁page	-5971
▁milit	-5972
iy	-5973
▁NBA	-5974
▁Indones	-5975
▁considerable	-5976
mb	-5977
▁Found	-5978
▁Prog	-5979
▁poly	-5980
▁dates	-5981
▁Int	-5982
iller	-5983
hus	-5984
▁Nether	-5985
▁Gen	-5986
▁typical	-5987
▁grounds	-5988
▁Kennedy	-5989
▁Gun	-5990
erted	-5991
▁correct	-5992
▁Today	-5993
▁duties	-5994
▁extension	-5995
cks	-5996
▁blow	-5997
rete	-5998
▁someone	-5999
▁evolution	-6000
▁Transport	-6001
▁cong	-6002
▁penal	-6003
▁rural	-6004
▁Military	-6005
▁Sunday	-6006
▁eighth	-6007
BI	-6008
vements	-6009
▁Indiana	-6010
▁spin	-6011
▁sole	-6012
▁hotel	-6013
▁Project	-6014
▁Howard	-6015
osite	-6016
▁decades	-6017
▁Norwe	-6018
king	-6019
▁images	-6020
▁Pit	-6021
▁driving	-6022
▁reading	-6023
▁identity	-6024
▁Scully	-6025
▁Hou	-6026
▁zone	-6027
▁Marc	-6028
add	-6029
▁occurs	-6030
hetic	-6031
▁Leon	-6032
▁manner	-6033
▁Bry	-6034
▁skin	-6035
▁subs	-6036
▁Hitler	-6037
▁challenge	-6038
▁lane	-6039
▁remix	-6040
▁Kat	-6041
▁tow	-6042
▁aspects	-6043
▁permanent	-6044
▁Tar	-6045
▁aer	-6046
▁Ta	-6047
▁brigade	-6048
▁frag	-6049
▁volcan	-6050
▁ham	-6051
▁dated	-6052
▁Cult	-6053
▁Five	-6054
▁vir	-6055
▁Gill	-6056
▁Portug	-6057
▁noting	-6058
▁restaur	-6059
▁Brist	-6060
▁colour	-6061
ez	-6062
after	-6063
ubb	-6064
ione	-6065
▁Drag	-6066
▁supporters	-6067
▁WWE	-6068
▁slowly	-6069
▁clean	-6070
▁Ba	-6071
▁posted	-6072
▁Pear	-6073
ensus	-6074
▁Turk	-6075
iley	-6076
ivals	-6077
▁Rose	-6078
cknow	-6079
veland	-6080
▁Science	-6081
▁Research	-6082
▁describing	-6083
▁involving	-6084
▁speak	-6085
▁vessels	-6086
▁entering	-6087
▁enemies	-6088
▁Assembly	-6089
▁dress	-6090
▁equivalent	-6091
aware	-6092
▁Ryan	-6093
▁Hug	-6094
▁classes	-6095
▁bra	-6096
▁debate	-6097
▁settled	-6098
nic	-6099
▁Ak	-6100
▁din	-6101
▁obtained	-6102
▁department	-6103
regon	-6104
▁Constitution	-6105
▁accur	-6106
▁armor	-6107
▁Rolling	-6108
▁parliament	-6109
erto	-6110
▁Disc	-6111
▁Magazine	-6112
▁tele	-6113
▁Argent	-6114
▁Mountain	-6115
▁basic	-6116
▁songwrit	-6117
risis	-6118
▁purchase	-6119
agues	-6120
fl	-6121
▁pup	-6122
▁folk	-6123
▁nest	-6124
▁oldest	-6125
▁Cleveland	-6126
▁Space	-6127
▁faith	-6128
▁Pier	-6129
▁Lenn	-6130
▁concerned	-6131
▁departure	-6132
▁widespread	-6133
▁formal	-6134
▁decline	-6135
▁Illinois	-6136
▁connection	-6137
ophy	-6138
cation	-6139
▁income	-6140
▁attached	-6141
hered	-6142
▁recognition	-6143
▁Now	-6144
▁integ	-6145
▁Douglas	-6146
▁memorial	-6147
▁outer	-6148
▁certified	-6149
▁Throughout	-6150
▁deleg	-6151
heastern	-6152
▁accused	-6153
▁sequel	-6154
orney	-6155
▁Weekly	-6156
▁derived	-6157
▁decor	-6158
▁Sav	-6159
rates	-6160
▁mode	-6161
▁Ira	-6162
▁ha	-6163
▁Rele	-6164
▁Stand	-6165
aret	-6166
▁Andy	-6167
▁Jordan	-6168
▁wearing	-6169
icit	-6170
▁hip	-6171
▁swim	-6172
▁assumed	-6173
▁disturb	-6174
▁wed	-6175
western	-6176
▁Oregon	-6177
▁acknow	-6178
▁Stanley	-6179
▁torn	-6180
▁Freder	-6181
▁acclaim	-6182
ooth	-6183
▁survey	-6184
▁committed	-6185
iot	-6186
▁foss	-6187
▁Media	-6188
▁Arsenal	-6189
▁Feder	-6190
▁hosted	-6191
RA	-6192
▁Third	-6193
▁returns	-6194
▁Roger	-6195
▁valley	-6196
▁segment	-6197
ekend	-6198
▁sessions	-6199
▁Dal	-6200
agonist	-6201
▁Philip	-6202
▁populations	-6203
▁denied	-6204
▁fine	-6205
▁Mediter	-6206
▁Treat	-6207
▁Family	-6208
▁temple	-6209
▁Recording	-6210
▁hang	-6211
wan	-6212
▁flo	-6213
▁champion	-6214
▁Beatles	-6215
▁charges	-6216
▁Low	-6217
▁Tenn	-6218
▁Bruce	-6219
▁literary	-6220
▁Kevin	-6221
▁canc	-6222
▁regional	-6223
▁Norwegian	-6224
▁thousands	-6225
▁terminus	-6226
▁transition	-6227
▁Mediterranean	-6228
▁circum	-6229
iva	-6230
▁supposed	-6231
▁warm	-6232
▁Bristol	-6233
▁wickets	-6234
▁demand	-6235
▁Es	-6236
▁Dig	-6237
▁ans	-6238
▁Az	-6239
hedral	-6240
▁shots	-6241
▁ISBN	-6242
▁Rain	-6243
udden	-6244
▁strongly	-6245
heme	-6246
achel	-6247
▁circulation	-6248
▁Bush	-6249
▁intelligence	-6250
▁sailed	-6251
▁passengers	-6252
▁possibility	-6253
▁generation	-6254
IA	-6255
▁hope	-6256
▁fictional	-6257
emed	-6258
▁animated	-6259
▁thirty	-6260
▁freedom	-6261
▁downtown	-6262
▁Ho	-6263
▁Channel	-6264
organ	-6265
▁Federal	-6266
ito	-6267
eing	-6268
▁hill	-6269
▁rich	-6270
▁minister	-6271
▁behavior	-6272
▁cloud	-6273
▁Mexican	-6274
rage	-6275
CA	-6276
▁assistance	-6277
▁begun	-6278
▁replacement	-6279
▁Pur	-6280
ami	-6281
▁fruit	-6282
▁commanded	-6283
▁Web	-6284
atinum	-6285
▁destruction	-6286
▁moves	-6287
mes	-6288
▁Bol	-6289
▁criminal	-6290
char	-6291
▁missed	-6292
▁missions	-6293
▁Conc	-6294
▁costs	-6295
▁exception	-6296
▁Der	-6297
▁crash	-6298
upt	-6299
▁Row	-6300
orced	-6301
▁bringing	-6302
▁highlight	-6303
▁tied	-6304
▁Master	-6305
▁Cas	-6306
lig	-6307
isms	-6308
▁Eric	-6309
▁Korea	-6310
▁commit	-6311
▁Within	-6312
▁feeling	-6313
▁intention	-6314
onto	-6315
▁speaking	-6316
▁Bah	-6317
▁Lisa	-6318
▁unusual	-6319
elsh	-6320
oral	-6321
▁Additionally	-6322
▁Fame	-6323
▁alleged	-6324
▁finishing	-6325
▁intercept	-6326
lets	-6327
▁Nar	-6328
▁demol	-6329
▁properties	-6330
▁incorporated	-6331
▁stayed	-6332
▁opposite	-6333
▁Sab	-6334
▁attributed	-6335
▁shop	-6336
▁Phill	-6337
▁volunte	-6338
▁recovered	-6339
borne	-6340
▁sons	-6341
▁Color	-6342
▁emerged	-6343
▁breaking	-6344
▁serves	-6345
▁atmosphere	-6346
▁Morgan	-6347
▁Morris	-6348
▁dipl	-6349
▁chorus	-6350
▁Norman	-6351
▁theatre	-6352
▁occasionally	-6353
rating	-6354
▁driven	-6355
olec	-6356
othing	-6357
▁Scient	-6358
aire	-6359
▁Ele	-6360
▁strateg	-6361
▁Robinson	-6362
▁Kr	-6363
enses	-6364
umin	-6365
▁Ever	-6366
riers	-6367
▁classic	-6368
▁spok	-6369
▁Prior	-6370
▁ready	-6371
▁regularly	-6372
▁effectively	-6373
aza	-6374
▁cavalry	-6375
▁establishment	-6376
▁Sky	-6377
▁prey	-6378
▁courts	-6379
▁methods	-6380
▁Raj	-6381
▁sounds	-6382
thm	-6383
▁vary	-6384
oslav	-6385
▁Hawai	-6386
ogen	-6387
▁divers	-6388
▁Television	-6389
▁superv	-6390
▁Similar	-6391
don	-6392
▁dream	-6393
pective	-6394
▁Around	-6395
▁completion	-6396
▁shore	-6397
▁Unlike	-6398
▁materials	-6399
▁CE	-6400
▁Construction	-6401
▁Gh	-6402
uty	-6403
▁dissip	-6404
▁responsibility	-6405
▁USA	-6406
▁warning	-6407
▁accommod	-6408
wen	-6409
▁Cab	-6410
▁Finn	-6411
▁fields	-6412
▁heat	-6413
▁attracted	-6414
▁surviving	-6415
▁province	-6416
▁persu	-6417
▁Nelson	-6418
▁entertain	-6419
▁Iron	-6420
rim	-6421
▁global	-6422
nold	-6423
ece	-6424
▁Nich	-6425
▁Francis	-6426
▁mo	-6427
▁quant	-6428
▁classified	-6429
sole	-6430
▁kid	-6431
▁Premier	-6432
▁differences	-6433
▁DE	-6434
icks	-6435
▁Lanc	-6436
▁divisions	-6437
▁technical	-6438
vens	-6439
▁Sweden	-6440
▁interpret	-6441
▁brain	-6442
ban	-6443
▁Ford	-6444
▁Techn	-6445
▁Patrick	-6446
▁cruiser	-6447
ipe	-6448
▁Budd	-6449
▁passage	-6450
abled	-6451
emeter	-6452
▁Anton	-6453
▁aboard	-6454
▁Mit	-6455
▁none	-6456
▁sam	-6457
inton	-6458
oyd	-6459
▁PA	-6460
▁Temple	-6461
weight	-6462
▁clubs	-6463
▁stood	-6464
▁ratings	-6465
▁association	-6466
▁eleven	-6467
▁neither	-6468
ji	-6469
▁musicians	-6470
▁rooms	-6471
nce	-6472
▁medic	-6473
▁reinforce	-6474
idden	-6475
omot	-6476
▁Hell	-6477
▁desire	-6478
▁hal	-6479
nings	-6480
▁Toronto	-6481
▁separated	-6482
▁Anne	-6483
▁Welsh	-6484
▁climate	-6485
agle	-6486
▁squ	-6487
▁shif	-6488
▁Nations	-6489
▁outbreak	-6490
▁classification	-6491
▁ancest	-6492
▁Dog	-6493
ón	-6494
▁vehicle	-6495
▁Marg	-6496
▁seemed	-6497
▁reality	-6498
▁Byzantine	-6499
▁predecess	-6500
▁chemical	-6501
▁votes	-6502
▁picture	-6503
teenth	-6504
▁Allen	-6505
▁battleships	-6506
▁rose	-6507
▁Chron	-6508
▁memory	-6509
▁hoped	-6510
ici	-6511
▁Profess	-6512
▁movements	-6513
▁ment	-6514
▁requested	-6515
▁Open	-6516
▁Netherlands	-6517
▁Belg	-6518
▁Journal	-6519
ogy	-6520
▁raise	-6521
▁historians	-6522
▁ille	-6523
▁Every	-6524
▁Matthew	-6525
▁Sn	-6526
▁Pow	-6527
burn	-6528
▁map	-6529
▁difficulty	-6530
reck	-6531
▁basketball	-6532
inder	-6533
▁Whe	-6534
ewhere	-6535
ige	-6536
▁expect	-6537
▁vide	-6538
abil	-6539
▁communities	-6540
▁restored	-6541
▁raid	-6542
▁teen	-6543
▁remember	-6544
▁Bang	-6545
▁Sports	-6546
▁programme	-6547
▁Jews	-6548
▁premiere	-6549
▁Dean	-6550
▁pure	-6551
har	-6552
▁fal	-6553
▁delayed	-6554
▁Jacob	-6555
▁fer	-6556
▁relative	-6557
▁inspiration	-6558
▁Sax	-6559
▁discovery	-6560
▁gal	-6561
▁greatly	-6562
▁otherwise	-6563
▁USS	-6564
▁injuries	-6565
▁anniversary	-6566
▁Design	-6567
▁Again	-6568
▁neighbor	-6569
▁satisf	-6570
▁accounts	-6571
hire	-6572
▁funding	-6573
▁surrounded	-6574
▁flank	-6575
▁Ult	-6576
▁Domin	-6577
▁depict	-6578
▁praise	-6579
▁penalty	-6580
▁spoke	-6581
ilers	-6582
▁needs	-6583
▁batting	-6584
▁Iraq	-6585
iate	-6586
▁dens	-6587
▁strate	-6588
▁die	-6589
▁partner	-6590
▁crop	-6591
▁Wright	-6592
▁Marine	-6593
▁weapon	-6594
▁massive	-6595
▁photograph	-6596
▁recru	-6597
▁claiming	-6598
▁Dor	-6599
▁cra	-6600
anth	-6601
▁suit	-6602
▁Bishop	-6603
▁assemb	-6604
▁lat	-6605
▁astron	-6606
▁tries	-6607
▁forming	-6608
▁strategy	-6609
▁wrong	-6610
real	-6611
▁legend	-6612
▁Oak	-6613
▁accompl	-6614
▁documentary	-6615
▁Glob	-6616
▁fled	-6617
▁Armen	-6618
▁crosses	-6619
▁worst	-6620
▁Hop	-6621
▁Croatian	-6622
▁Heart	-6623
▁Da	-6624
▁stands	-6625
gets	-6626
▁Thompson	-6627
▁architecture	-6628
▁ash	-6629
▁Last	-6630
uther	-6631
▁temporary	-6632
▁Jam	-6633
▁girls	-6634
uble	-6635
▁chairman	-6636
▁determine	-6637
▁Dick	-6638
▁Russell	-6639
▁dismissed	-6640
aired	-6641
▁Islam	-6642
▁involvement	-6643
▁Stra	-6644
▁bombard	-6645
▁Trib	-6646
▁sale	-6647
▁category	-6648
▁rot	-6649
formula	-6650
▁plane	-6651
▁Centre	-6652
▁remn	-6653
▁inner	-6654
▁adaptation	-6655
▁Mars	-6656
▁hear	-6657
rum	-6658
onds	-6659
going	-6660
▁ensure	-6661
▁convinced	-6662
▁enf	-6663
▁sight	-6664
lyn	-6665
▁NC	-6666
▁cul	-6667
▁weekend	-6668
▁NFL	-6669
▁Holy	-6670
▁Puerto	-6671
▁Front	-6672
▁somewhat	-6673
▁resources	-6674
▁Carter	-6675
▁reserv	-6676
▁Winter	-6677
▁interests	-6678
▁Rick	-6679
wing	-6680
▁scheme	-6681
▁medieval	-6682
▁immediate	-6683
▁Kelly	-6684
▁Hend	-6685
agre	-6686
▁Modern	-6687
▁streets	-6688
▁presidential	-6689
▁Ker	-6690
▁library	-6691
▁ray	-6692
oster	-6693
▁absor	-6694
▁carbon	-6695
▁consp	-6696
▁Cooper	-6697
body	-6698
▁ic	-6699
▁Spe	-6700
itzer	-6701
po	-6702
▁falling	-6703
▁colonial	-6704
▁Dra	-6705
▁Along	-6706
▁techniques	-6707
▁ori	-6708
▁classical	-6709
▁sed	-6710
▁Niel	-6711
▁ninth	-6712
▁fighter	-6713
▁Rang	-6714
▁throne	-6715
▁appropri	-6716
▁Gard	-6717
▁eggs	-6718
▁starred	-6719
▁Brother	-6720
▁academic	-6721
▁Free	-6722
▁races	-6723
▁Network	-6724
▁bright	-6725
aya	-6726
icide	-6727
▁adults	-6728
▁Pak	-6729
▁convent	-6730
▁commemor	-6731
▁passenger	-6732
▁surviv	-6733
▁loyal	-6734
▁Hungarian	-6735
▁Nob	-6736
▁meets	-6737
▁lake	-6738
night	-6739
▁Wy	-6740
▁Gri	-6741
▁reviewer	-6742
ester	-6743
▁Thus	-6744
▁alien	-6745
▁premiered	-6746
▁submarine	-6747
rine	-6748
▁Bou	-6749
▁Batman	-6750
▁absence	-6751
bec	-6752
wealth	-6753
▁renew	-6754
▁seeing	-6755
▁else	-6756
▁Labor	-6757
▁fitted	-6758
▁superior	-6759
osure	-6760
▁interior	-6761
arsh	-6762
▁favorite	-6763
▁Parker	-6764
▁engineer	-6765
ronze	-6766
▁dub	-6767
PA	-6768
▁Est	-6769
▁airport	-6770
▁partn	-6771
▁Tok	-6772
▁Harris	-6773
▁deemed	-6774
▁attacking	-6775
omp	-6776
▁appearing	-6777
▁conclusion	-6778
acent	-6779
▁visible	-6780
▁Bi	-6781
ivan	-6782
▁dating	-6783
▁synthes	-6784
using	-6785
▁romantic	-6786
▁characteristics	-6787
▁x	-6788
▁leads	-6789
▁elections	-6790
▁rum	-6791
▁operate	-6792
▁facility	-6793
▁encouraged	-6794
▁municip	-6795
▁Library	-6796
▁afterwards	-6797
▁retirement	-6798
▁DNA	-6799
▁landed	-6800
book	-6801
▁Murray	-6802
▁colony	-6803
▁convection	-6804
▁temperatures	-6805
▁buy	-6806
▁everyone	-6807
chang	-6808
▁AI	-6809
▁doct	-6810
oen	-6811
▁suffering	-6812
▁credit	-6813
▁legislation	-6814
▁holds	-6815
▁Knight	-6816
▁modified	-6817
▁lies	-6818
▁challeng	-6819
▁Education	-6820
▁Ts	-6821
▁Late	-6822
aver	-6823
▁painted	-6824
▁controversial	-6825
▁wings	-6826
eor	-6827
▁san	-6828
▁gone	-6829
ania	-6830
roit	-6831
ossible	-6832
▁Houston	-6833
▁believes	-6834
ixon	-6835
▁code	-6836
urches	-6837
▁distributed	-6838
▁od	-6839
▁Brand	-6840
▁Commander	-6841
▁attempting	-6842
▁Police	-6843
asure	-6844
▁Berlin	-6845
▁Palace	-6846
uster	-6847
▁standards	-6848
▁looked	-6849
▁rescue	-6850
▁authors	-6851
▁Advent	-6852
▁secured	-6853
▁monarch	-6854
▁depicted	-6855
tic	-6856
▁Ut	-6857
▁cancer	-6858
▁archae	-6859
▁dominated	-6860
▁FI	-6861
▁battleship	-6862
▁grass	-6863
▁habitat	-6864
ache	-6865
scape	-6866
▁anyone	-6867
apse	-6868
▁Yug	-6869
coming	-6870
▁continuing	-6871
▁judge	-6872
▁wel	-6873
▁immig	-6874
▁longest	-6875
▁Santa	-6876
▁Story	-6877
eline	-6878
aws	-6879
▁Swedish	-6880
▁biggest	-6881
li	-6882
▁Commonwealth	-6883
▁unsuccessful	-6884
▁union	-6885
▁graphics	-6886
▁Get	-6887
encies	-6888
▁pound	-6889
▁neck	-6890
▁obtain	-6891
▁Li	-6892
▁Roberts	-6893
▁Simpson	-6894
▁trained	-6895
▁Ot	-6896
▁Yan	-6897
▁wins	-6898
▁sudden	-6899
▁Hospital	-6900
inals	-6901
ultane	-6902
▁Obs	-6903
▁jump	-6904
▁arrangement	-6905
aska	-6906
▁carrier	-6907
▁railroad	-6908
owa	-6909
▁Indians	-6910
▁Ey	-6911
▁acknowled	-6912
▁Lyn	-6913
▁nickn	-6914
▁Silver	-6915
▁Mort	-6916
opes	-6917
oming	-6918
▁informed	-6919
▁measures	-6920
eenth	-6921
▁Cook	-6922
hess	-6923
▁RAAF	-6924
▁belt	-6925
emetery	-6926
▁representing	-6927
▁releases	-6928
▁achieve	-6929
▁Corporation	-6930
▁Social	-6931
▁NBC	-6932
▁Warner	-6933
ternal	-6934
ching	-6935
▁sees	-6936
▁Merc	-6937
▁Yugoslav	-6938
▁garrison	-6939
▁convention	-6940
una	-6941
ture	-6942
▁formerly	-6943
▁Jason	-6944
▁grade	-6945
▁bab	-6946
▁generated	-6947
▁closer	-6948
▁styles	-6949
▁deployed	-6950
▁emergency	-6951
▁Anthony	-6952
▁bats	-6953
▁alleg	-6954
tenance	-6955
elle	-6956
▁questions	-6957
olph	-6958
▁moderate	-6959
fare	-6960
▁historic	-6961
▁gets	-6962
▁veter	-6963
▁trials	-6964
▁cycle	-6965
▁festival	-6966
hemat	-6967
▁molec	-6968
▁ster	-6969
▁siege	-6970
▁influential	-6971
▁Cru	-6972
▁emotional	-6973
▁Hin	-6974
▁Croatia	-6975
▁Detroit	-6976
▁Tal	-6977
otype	-6978
▁novels	-6979
▁owners	-6980
agu	-6981
uts	-6982
▁RAF	-6983
▁successor	-6984
▁influences	-6985
▁narrative	-6986
▁Gaga	-6987
aria	-6988
▁Bure	-6989
▁thin	-6990
▁Chamber	-6991
aints	-6992
▁ru	-6993
▁stead	-6994
▁eat	-6995
▁Author	-6996
▁excess	-6997
▁journalist	-6998
▁Gilbert	-6999
▁childhood	-7000
▁constant	-7001
▁experiences	-7002
mate	-7003
▁pregn	-7004
▁veget	-7005
▁Princess	-7006
▁defended	-7007
▁discussed	-7008
▁legs	-7009
▁apparently	-7010
▁alco	-7011
▁instruments	-7012
▁Rap	-7013
▁assass	-7014
▁Spears	-7015
▁treated	-7016
▁victims	-7017
▁PC	-7018
▁giant	-7019
▁environmental	-7020
▁diplom	-7021
fire	-7022
arked	-7023
▁executed	-7024
imore	-7025
▁detail	-7026
▁Asian	-7027
▁coins	-7028
▁depos	-7029
anny	-7030
▁offices	-7031
obi	-7032
▁factors	-7033
▁mine	-7034
▁Jesus	-7035
yard	-7036
usted	-7037
iens	-7038
▁bear	-7039
▁concur	-7040
rams	-7041
▁Desc	-7042
achment	-7043
▁enters	-7044
▁hunting	-7045
▁Somers	-7046
▁wooden	-7047
▁Melbourne	-7048
noon	-7049
▁Evans	-7050
▁Nielsen	-7051
▁Pope	-7052
▁Atlant	-7053
aste	-7054
▁channel	-7055
▁hundreds	-7056
▁Guy	-7057
▁Vice	-7058
▁ride	-7059
▁resigned	-7060
DS	-7061
rot	-7062
▁ocean	-7063
iliar	-7064
▁Xbox	-7065
▁Clinton	-7066
▁gay	-7067
▁uniform	-7068
▁Mun	-7069
▁skills	-7070
▁Bed	-7071
▁Organ	-7072
▁navig	-7073
▁reveals	-7074
alo	-7075
▁Nevertheless	-7076
▁spend	-7077
▁chapter	-7078
▁pointed	-7079
▁Category	-7080
▁enh	-7081
▁ridge	-7082
text	-7083
▁clim	-7084
ES	-7085
orous	-7086
▁Wing	-7087
▁Stewart	-7088
▁watching	-7089
▁bon	-7090
▁prevented	-7091
usic	-7092
▁Muslim	-7093
▁preferred	-7094
lie	-7095
utt	-7096
▁Real	-7097
rees	-7098
▁pushed	-7099
▁pull	-7100
▁format	-7101
icians	-7102
▁locomot	-7103
▁flew	-7104
▁footage	-7105
▁languages	-7106
▁Heavy	-7107
▁happened	-7108
▁opponents	-7109
▁difference	-7110
▁Tower	-7111
▁drums	-7112
▁formally	-7113
▁thereafter	-7114
▁check	-7115
▁intent	-7116
▁reportedly	-7117
itter	-7118
▁facing	-7119
▁Benn	-7120
▁resign	-7121
▁relationships	-7122
▁Origin	-7123
▁accomp	-7124
▁chain	-7125
▁Carib	-7126
▁Bulgar	-7127
▁Turkish	-7128
▁intense	-7129
▁thousand	-7130
▁handed	-7131
▁Samuel	-7132
▁Express	-7133
oto	-7134
tty	-7135
▁device	-7136
▁notably	-7137
▁Sarah	-7138
ski	-7139
▁animation	-7140
▁Lim	-7141
▁Rey	-7142
ogether	-7143
▁Lennon	-7144
▁firing	-7145
▁vision	-7146
▁inhabit	-7147
▁existed	-7148
▁visitors	-7149
idi	-7150
▁Bird	-7151
▁surrender	-7152
▁Aud	-7153
▁gather	-7154
▁employees	-7155
MA	-7156
▁Greece	-7157
▁Baltimore	-7158
▁bes	-7159
onies	-7160
▁accompany	-7161
▁Queens	-7162
▁Austria	-7163
mad	-7164
▁Albums	-7165
roc	-7166
bean	-7167
spec	-7168
▁Ark	-7169
▁Hans	-7170
▁linked	-7171
▁departed	-7172
▁exposed	-7173
▁hearing	-7174
▁participate	-7175
ds	-7176
▁poetry	-7177
▁dialogue	-7178
stic	-7179
hatt	-7180
da	-7181
▁extent	-7182
ois	-7183
▁fil	-7184
▁Stock	-7185
▁announce	-7186
▁detailed	-7187
olis	-7188
▁Colorado	-7189
▁substantial	-7190
yo	-7191
ican	-7192
▁learning	-7193
▁audio	-7194
▁beach	-7195
▁Cam	-7196
▁Raw	-7197
▁instance	-7198
▁universe	-7199
▁Lane	-7200
ropolitan	-7201
▁rebell	-7202
▁cruisers	-7203
▁residential	-7204
jo	-7205
unes	-7206
prise	-7207
▁Writing	-7208
▁impressed	-7209
▁Marshall	-7210
▁vul	-7211
orage	-7212
▁Horn	-7213
▁avo	-7214
orial	-7215
▁periods	-7216
▁Initially	-7217
endment	-7218
▁Cz	-7219
▁ske	-7220
▁Foundation	-7221
▁huge	-7222
▁mart	-7223
▁plate	-7224
▁util	-7225
ullivan	-7226
▁Malays	-7227
▁publisher	-7228
▁hat	-7229
igen	-7230
▁easy	-7231
▁taught	-7232
▁Dave	-7233
▁enthus	-7234
▁afternoon	-7235
lock	-7236
▁tempor	-7237
ologists	-7238
▁stem	-7239
▁Frederick	-7240
▁territories	-7241
▁driver	-7242
▁testing	-7243
▁imprison	-7244
▁reviewers	-7245
▁Ern	-7246
ribed	-7247
▁videos	-7248
boy	-7249
opter	-7250
▁Wrestling	-7251
▁happy	-7252
▁upd	-7253
▁tests	-7254
viation	-7255
iami	-7256
▁Banks	-7257
▁Horse	-7258
▁Having	-7259
▁stable	-7260
▁feud	-7261
▁teeth	-7262
▁reprodu	-7263
▁sympt	-7264
▁understand	-7265
▁isolated	-7266
▁ca	-7267
ogan	-7268
roph	-7269
▁negotiations	-7270
▁vessel	-7271
▁Somerset	-7272
▁diameter	-7273
▁inher	-7274
▁sleep	-7275
▁agents	-7276
otes	-7277
▁picked	-7278
▁Jess	-7279
▁Anna	-7280
atically	-7281
▁Buck	-7282
▁Know	-7283
▁Mario	-7284
▁goods	-7285
▁bridges	-7286
▁encountered	-7287
cho	-7288
▁dangerous	-7289
▁junior	-7290
▁Release	-7291
▁withdrew	-7292
▁diagn	-7293
▁lob	-7294
▁simultane	-7295
roke	-7296
▁aged	-7297
▁founder	-7298
▁reun	-7299
▁Anglo	-7300
▁behavi	-7301
▁factor	-7302
▁normally	-7303
▁upgraded	-7304
sea	-7305
▁Giants	-7306
▁keeping	-7307
▁fur	-7308
▁Miami	-7309
▁specimens	-7310
borough	-7311
▁window	-7312
▁tie	-7313
▁pounds	-7314
mission	-7315
▁deter	-7316
▁Seattle	-7317
▁medium	-7318
▁satell	-7319
etime	-7320
▁relie	-7321
▁frequent	-7322
olas	-7323
▁sure	-7324
▁ethnic	-7325
▁collaps	-7326
idae	-7327
▁mir	-7328
▁diet	-7329
▁toll	-7330
bridge	-7331
▁partly	-7332
▁Player	-7333
▁Championships	-7334
▁Ext	-7335
▁lowest	-7336
▁crisis	-7337
▁prohib	-7338
▁resear	-7339
▁engineering	-7340
chen	-7341
▁Trek	-7342
▁Call	-7343
▁apprec	-7344
▁Alab	-7345
▁Soon	-7346
▁outf	-7347
▁traveled	-7348
▁vic	-7349
helm	-7350
▁Cre	-7351
▁whereas	-7352
▁organizations	-7353
iable	-7354
▁proced	-7355
away	-7356
▁designer	-7357
▁ped	-7358
▁rarely	-7359
▁Op	-7360
▁lose	-7361
▁refers	-7362
amese	-7363
▁tone	-7364
▁Hand	-7365
▁doesn	-7366
▁turrets	-7367
iece	-7368
usal	-7369
▁technique	-7370
brid	-7371
▁insc	-7372
▁Human	-7373
▁Treaty	-7374
▁Iowa	-7375
gery	-7376
ée	-7377
▁vice	-7378
▁orb	-7379
igs	-7380
▁ax	-7381
▁finale	-7382
▁spending	-7383
▁criticised	-7384
▁advice	-7385
▁permission	-7386
▁maintenance	-7387
▁ML	-7388
▁lad	-7389
ennis	-7390
▁platinum	-7391
▁uncertain	-7392
▁difficulties	-7393
ila	-7394
▁phen	-7395
xual	-7396
ygen	-7397
▁Alabama	-7398
▁complic	-7399
▁restric	-7400
▁policies	-7401
▁partially	-7402
ls	-7403
▁bypass	-7404
▁personality	-7405
▁agree	-7406
▁verse	-7407
▁mainstream	-7408
▁Forces	-7409
▁compete	-7410
▁ranking	-7411
▁indicate	-7412
▁liqu	-7413
▁excell	-7414
▁Dur	-7415
▁proport	-7416
▁recordings	-7417
ilst	-7418
inction	-7419
uscript	-7420
▁Caribbean	-7421
oked	-7422
▁unn	-7423
▁comments	-7424
FC	-7425
▁remove	-7426
▁anticip	-7427
col	-7428
▁Napole	-7429
▁finals	-7430
▁Then	-7431
▁mamm	-7432
▁refuge	-7433
▁Buff	-7434
▁safe	-7435
▁Mississ	-7436
▁Lawrence	-7437
attered	-7438
▁concerts	-7439
▁Yanke	-7440
▁windows	-7441
▁Canal	-7442
▁strip	-7443
uda	-7444
▁moral	-7445
▁seats	-7446
▁restrict	-7447
chell	-7448
▁symp	-7449
▁Charlie	-7450
▁overs	-7451
▁monument	-7452
▁jur	-7453
▁falls	-7454
▁rates	-7455
▁repair	-7456
▁extreme	-7457
▁Ah	-7458
▁Nat	-7459
▁recur	-7460
▁Minnes	-7461
▁fighters	-7462
▁recommend	-7463
▁pitched	-7464
▁Bros	-7465
▁representative	-7466
▁Crown	-7467
▁covers	-7468
▁alter	-7469
▁truth	-7470
▁Senator	-7471
▁McD	-7472
▁tenth	-7473
enh	-7474
▁diff	-7475
▁Mach	-7476
▁prompted	-7477
isd	-7478
power	-7479
rang	-7480
▁forcing	-7481
▁protest	-7482
▁describe	-7483
▁hockey	-7484
▁CR	-7485
▁Ian	-7486
▁phr	-7487
▁tub	-7488
▁Ministry	-7489
▁shear	-7490
▁reconst	-7491
▁destroyers	-7492
Ar	-7493
mates	-7494
▁minimum	-7495
sk	-7496
▁underw	-7497
▁MP	-7498
▁Brig	-7499
▁Garden	-7500
▁Township	-7501
▁Hu	-7502
▁hull	-7503
▁pric	-7504
▁churches	-7505
▁neighborhood	-7506
ifer	-7507
▁Dead	-7508
▁Grammy	-7509
▁friendly	-7510
▁boys	-7511
▁bases	-7512
▁examples	-7513
▁USD	-7514
▁Blood	-7515
▁Health	-7516
▁Hungary	-7517
urance	-7518
▁drawing	-7519
▁Country	-7520
▁Nazi	-7521
▁Polit	-7522
▁pin	-7523
▁Benj	-7524
▁travelled	-7525
mers	-7526
▁Ban	-7527
▁bombers	-7528
▁inaug	-7529
▁doctor	-7530
▁Roc	-7531
▁Dance	-7532
▁dynasty	-7533
▁adjacent	-7534
▁mand	-7535
▁approval	-7536
▁housing	-7537
▁displayed	-7538
▁Hamp	-7539
▁Return	-7540
▁Australians	-7541
▁Belgium	-7542
▁creator	-7543
▁credits	-7544
▁ju	-7545
▁Christopher	-7546
▁turb	-7547
▁Diego	-7548
▁aware	-7549
▁grown	-7550
▁joining	-7551
▁listing	-7552
▁tribute	-7553
▁collapse	-7554
▁partnership	-7555
▁Shakesp	-7556
eu	-7557
▁protagonist	-7558
iac	-7559
▁Cold	-7560
▁fung	-7561
▁Event	-7562
zz	-7563
ante	-7564
odore	-7565
▁Rand	-7566
▁Medal	-7567
▁explo	-7568
▁moments	-7569
ods	-7570
▁acted	-7571
▁changing	-7572
▁creative	-7573
alions	-7574
▁designation	-7575
wa	-7576
icy	-7577
▁powered	-7578
ugby	-7579
▁Gab	-7580
▁Kal	-7581
▁instrumental	-7582
▁Represent	-7583
itud	-7584
▁Much	-7585
▁Laure	-7586
▁trend	-7587
▁refere	-7588
▁asks	-7589
▁Children	-7590
▁DC	-7591
▁Camer	-7592
onnaissance	-7593
velt	-7594
▁radar	-7595
▁canal	-7596
bra	-7597
▁Michel	-7598
▁storms	-7599
▁Hud	-7600
▁arts	-7601
▁villages	-7602
▁Ll	-7603
▁Cred	-7604
▁possession	-7605
▁appointment	-7606
▁advis	-7607
▁dollars	-7608
imeter	-7609
▁treaty	-7610
▁scientists	-7611
die	-7612
▁Khan	-7613
ounced	-7614
▁rounds	-7615
otten	-7616
sters	-7617
▁Record	-7618
▁survive	-7619
▁Guardian	-7620
▁victories	-7621
▁Benjamin	-7622
▁paintings	-7623
▁eliminated	-7624
▁Legacy	-7625
▁covering	-7626
▁wheel	-7627
▁minimal	-7628
▁precip	-7629
▁els	-7630
▁Roose	-7631
▁Hockey	-7632
cop	-7633
▁elsewhere	-7634
icts	-7635
▁telling	-7636
▁Vietnamese	-7637
▁Hills	-7638
▁newspapers	-7639
▁innov	-7640
▁benefit	-7641
▁surprise	-7642
active	-7643
ivated	-7644
▁	-7645
e	-7646
t	-7647
a	-7648
n	-7649
i	-7650
o	-7651
r	-7652
s	-7653
h	-7654
l	-7655
d	-7656
c	-7657
u	-7658
m	-7659
f	-7660
g	-7661
p	-7662
w	-7663
y	-7664
b	-7665
,	-7666
.	-7667
v	-7668
k	-7669
@	-7670
1	-7671
T	-7672
S	-7673
0	-7674
A	-7675
=	-7676
C	-7677
"	-7678
M	-7679
2	-7680
B	-7681
I	-7682
'	-7683
9	-7684
-	-7685
H	-7686
P	-7687
x	-7688
R	-7689
D	-7690
F	-7691
W	-7692
L	-7693
N	-7694
G	-7695
)	-7696
(	-7697
3	-7698
5	-7699
8	-7700
E	-7701
J	-7702
4	-7703
O	-7704
6	-7705
7	-7706
z	-7707
j	-7708
K	-7709
q	-7710
U	-7711
V	-7712
;	-7713
–	-7714
:	-7715
Y	-7716
/	-7717
—	-7718
Z	-7719
Q	-7720
$	-7721
é	-7722
]	-7723
[	-7724
X	-7725
%	-7726
&	-7727
’	-7728
!	-7729
á	-7730
°	-7731
?	-7732
£	-7733
í	-7734
ö	-7735
ü	-7736
ó	-7737
ć	-7738
+	-7739
